{
  "version": "1.0",
  "truncation": null,
  "padding": null,
  "added_tokens": [
    {
      "id": 0,
      "content": "<pad>",
      "single_word": false,
      "lstrip": false,
      "rstrip": false,
      "normalized": false,
      "special": true
    },
    {
      "id": 1,
      "content": "<bos>",
      "single_word": false,
      "lstrip": false,
      "rstrip": false,
      "normalized": false,
      "special": true
    },
    {
      "id": 2,
      "content": "<eos>",
      "single_word": false,
      "lstrip": false,
      "rstrip": false,
      "normalized": false,
      "special": true
    },
    {
      "id": 3,
      "content": "<unk>",
      "single_word": false,
      "lstrip": false,
      "rstrip": false,
      "normalized": false,
      "special": true
    },
    {
      "id": 4,
      "content": "<|user|>",
      "single_word": false,
      "lstrip": false,
      "rstrip": false,
      "normalized": false,
      "special": true
    },
    {
      "id": 5,
      "content": "<|assistant|>",
      "single_word": false,
      "lstrip": false,
      "rstrip": false,
      "normalized": false,
      "special": true
    },
    {
      "id": 6,
      "content": "<|system|>",
      "single_word": false,
      "lstrip": false,
      "rstrip": false,
      "normalized": false,
      "special": true
    },
    {
      "id": 7,
      "content": "<|STATE|>",
      "single_word": false,
      "lstrip": false,
      "rstrip": false,
      "normalized": false,
      "special": true
    },
    {
      "id": 8,
      "content": "<|TOOL|>",
      "single_word": false,
      "lstrip": false,
      "rstrip": false,
      "normalized": false,
      "special": true
    }
  ],
  "normalizer": null,
  "pre_tokenizer": {
    "type": "ByteLevel",
    "add_prefix_space": false,
    "trim_offsets": true,
    "use_regex": true
  },
  "post_processor": {
    "type": "ByteLevel",
    "add_prefix_space": true,
    "trim_offsets": false,
    "use_regex": true
  },
  "decoder": {
    "type": "ByteLevel",
    "add_prefix_space": true,
    "trim_offsets": true,
    "use_regex": true
  },
  "model": {
    "type": "BPE",
    "dropout": null,
    "unk_token": "<unk>",
    "continuing_subword_prefix": null,
    "end_of_word_suffix": null,
    "fuse_unk": false,
    "byte_fallback": false,
    "ignore_merges": false,
    "vocab": {
      "<pad>": 0,
      "<bos>": 1,
      "<eos>": 2,
      "<unk>": 3,
      "<|user|>": 4,
      "<|assistant|>": 5,
      "<|system|>": 6,
      "<|STATE|>": 7,
      "<|TOOL|>": 8,
      "!": 9,
      "\"": 10,
      "#": 11,
      "$": 12,
      "%": 13,
      "&": 14,
      "'": 15,
      "(": 16,
      ")": 17,
      "*": 18,
      "+": 19,
      ",": 20,
      "-": 21,
      ".": 22,
      "/": 23,
      "0": 24,
      "1": 25,
      "2": 26,
      "3": 27,
      "4": 28,
      "5": 29,
      "6": 30,
      "7": 31,
      "8": 32,
      "9": 33,
      ":": 34,
      ";": 35,
      "<": 36,
      "=": 37,
      ">": 38,
      "?": 39,
      "@": 40,
      "A": 41,
      "B": 42,
      "C": 43,
      "D": 44,
      "E": 45,
      "F": 46,
      "G": 47,
      "H": 48,
      "I": 49,
      "J": 50,
      "K": 51,
      "L": 52,
      "M": 53,
      "N": 54,
      "O": 55,
      "P": 56,
      "Q": 57,
      "R": 58,
      "S": 59,
      "T": 60,
      "U": 61,
      "V": 62,
      "W": 63,
      "X": 64,
      "Y": 65,
      "Z": 66,
      "[": 67,
      "\\": 68,
      "]": 69,
      "^": 70,
      "_": 71,
      "`": 72,
      "a": 73,
      "b": 74,
      "c": 75,
      "d": 76,
      "e": 77,
      "f": 78,
      "g": 79,
      "h": 80,
      "i": 81,
      "j": 82,
      "k": 83,
      "l": 84,
      "m": 85,
      "n": 86,
      "o": 87,
      "p": 88,
      "q": 89,
      "r": 90,
      "s": 91,
      "t": 92,
      "u": 93,
      "v": 94,
      "w": 95,
      "x": 96,
      "y": 97,
      "z": 98,
      "{": 99,
      "|": 100,
      "}": 101,
      "~": 102,
      "¡": 103,
      "¢": 104,
      "£": 105,
      "¤": 106,
      "¥": 107,
      "¦": 108,
      "§": 109,
      "¨": 110,
      "©": 111,
      "ª": 112,
      "«": 113,
      "¬": 114,
      "®": 115,
      "¯": 116,
      "°": 117,
      "±": 118,
      "²": 119,
      "³": 120,
      "´": 121,
      "µ": 122,
      "¶": 123,
      "·": 124,
      "¸": 125,
      "¹": 126,
      "º": 127,
      "»": 128,
      "¼": 129,
      "½": 130,
      "¾": 131,
      "¿": 132,
      "À": 133,
      "Á": 134,
      "Â": 135,
      "Ã": 136,
      "Ä": 137,
      "Å": 138,
      "Æ": 139,
      "Ç": 140,
      "È": 141,
      "É": 142,
      "Ê": 143,
      "Ë": 144,
      "Ì": 145,
      "Í": 146,
      "Î": 147,
      "Ï": 148,
      "Ð": 149,
      "Ñ": 150,
      "Ò": 151,
      "Ó": 152,
      "Ô": 153,
      "Õ": 154,
      "Ö": 155,
      "×": 156,
      "Ø": 157,
      "Ù": 158,
      "Ú": 159,
      "Û": 160,
      "Ü": 161,
      "Ý": 162,
      "Þ": 163,
      "ß": 164,
      "à": 165,
      "á": 166,
      "â": 167,
      "ã": 168,
      "ä": 169,
      "å": 170,
      "æ": 171,
      "ç": 172,
      "è": 173,
      "é": 174,
      "ê": 175,
      "ë": 176,
      "ì": 177,
      "í": 178,
      "î": 179,
      "ï": 180,
      "ð": 181,
      "ñ": 182,
      "ò": 183,
      "ó": 184,
      "ô": 185,
      "õ": 186,
      "ö": 187,
      "÷": 188,
      "ø": 189,
      "ù": 190,
      "ú": 191,
      "û": 192,
      "ü": 193,
      "ý": 194,
      "þ": 195,
      "ÿ": 196,
      "Ā": 197,
      "ā": 198,
      "Ă": 199,
      "ă": 200,
      "Ą": 201,
      "ą": 202,
      "Ć": 203,
      "ć": 204,
      "Ĉ": 205,
      "ĉ": 206,
      "Ċ": 207,
      "ċ": 208,
      "Č": 209,
      "č": 210,
      "Ď": 211,
      "ď": 212,
      "Đ": 213,
      "đ": 214,
      "Ē": 215,
      "ē": 216,
      "Ĕ": 217,
      "ĕ": 218,
      "Ė": 219,
      "ė": 220,
      "Ę": 221,
      "ę": 222,
      "Ě": 223,
      "ě": 224,
      "Ĝ": 225,
      "ĝ": 226,
      "Ğ": 227,
      "ğ": 228,
      "Ġ": 229,
      "ġ": 230,
      "Ģ": 231,
      "ģ": 232,
      "Ĥ": 233,
      "ĥ": 234,
      "Ħ": 235,
      "ħ": 236,
      "Ĩ": 237,
      "ĩ": 238,
      "Ī": 239,
      "ī": 240,
      "Ĭ": 241,
      "ĭ": 242,
      "Į": 243,
      "į": 244,
      "İ": 245,
      "ı": 246,
      "Ĳ": 247,
      "ĳ": 248,
      "Ĵ": 249,
      "ĵ": 250,
      "Ķ": 251,
      "ķ": 252,
      "ĸ": 253,
      "Ĺ": 254,
      "ĺ": 255,
      "Ļ": 256,
      "ļ": 257,
      "Ľ": 258,
      "ľ": 259,
      "Ŀ": 260,
      "ŀ": 261,
      "Ł": 262,
      "ł": 263,
      "Ń": 264,
      "ĠĠ": 265,
      "on": 266,
      "in": 267,
      "re": 268,
      "Ġt": 269,
      "at": 270,
      "er": 271,
      "ĠĠĠĠ": 272,
      "Ġa": 273,
      "en": 274,
      "or": 275,
      "st": 276,
      "it": 277,
      "Ġc": 278,
      "le": 279,
      "--": 280,
      "he": 281,
      "ion": 282,
      "ct": 283,
      "Ġs": 284,
      "al": 285,
      "ou": 286,
      "Ġf": 287,
      "es": 288,
      "ing": 289,
      "Ġ|": 290,
      "ent": 291,
      "ar": 292,
      "Ġm": 293,
      "**": 294,
      "Ġw": 295,
      "an": 296,
      "ed": 297,
      "Ġp": 298,
      "Ġd": 299,
      "Ġthe": 300,
      "ro": 301,
      "is": 302,
      "el": 303,
      "âĶ": 304,
      "id": 305,
      "us": 306,
      "nd": 307,
      "Ġre": 308,
      "lo": 309,
      "Ġb": 310,
      "Ġin": 311,
      "Ġto": 312,
      "âĶĢ": 313,
      "Ġ\"": 314,
      "ce": 315,
      "ĠĠĠĠĠĠĠĠ": 316,
      "ĠĠĠ": 317,
      "im": 318,
      "et": 319,
      "ity": 320,
      "âĶĢâĶĢ": 321,
      "ex": 322,
      "ol": 323,
      "Ġcon": 324,
      "Ġ(": 325,
      "ation": 326,
      "ad": 327,
      "em": 328,
      "ch": 329,
      "----": 330,
      "Ġand": 331,
      "hi": 332,
      "as": 333,
      "Ġth": 334,
      "act": 335,
      "entity": 336,
      "od": 337,
      "ut": 338,
      "am": 339,
      "Ġy": 340,
      "identity": 341,
      "Ġ\\": 342,
      "Ġn": 343,
      "Ġ**": 344,
      "Ġst": 345,
      "00": 346,
      "25": 347,
      "Ġyou": 348,
      "op": 349,
      "ate": 350,
      "om": 351,
      "Ġg": 352,
      "Ġl": 353,
      "il": 354,
      "ers": 355,
      "Ġfor": 356,
      "ĠI": 357,
      "ĠT": 358,
      "ic": 359,
      "th": 360,
      "âĢ": 361,
      "pt": 362,
      "20": 363,
      "ĠS": 364,
      "ĠA": 365,
      "Ġh": 366,
      "ve": 367,
      "==": 368,
      "ig": 369,
      "``": 370,
      "ow": 371,
      "ext": 372,
      "Ġis": 373,
      "user": 374,
      "ess": 375,
      "un": 376,
      "ory": 377,
      "ly": 378,
      "ect": 379,
      "ore": 380,
      "ĠM": 381,
      "\":": 382,
      "est": 383,
      "ur": 384,
      "ap": 385,
      "hat": 386,
      "ure": 387,
      "ary": 388,
      "##": 389,
      "âĶĢâĶĢâĶĢâĶĢ": 390,
      "Ġo": 391,
      "read": 392,
      "Ġit": 393,
      "ith": 394,
      "2500": 395,
      "ĠW": 396,
      "ĠC": 397,
      "Ġ1": 398,
      "ist": 399,
      "ec": 400,
      "to": 401,
      "if": 402,
      "Ġv": 403,
      "ab": 404,
      "\",": 405,
      "Ġpro": 406,
      "ck": 407,
      "ot": 408,
      "nt": 409,
      "ĠU": 410,
      "ĠR": 411,
      "for": 412,
      "text": 413,
      "se": 414,
      "pr": 415,
      "Ġwith": 416,
      "ions": 417,
      "lev": 418,
      "ser": 419,
      "ke": 420,
      "con": 421,
      "ile": 422,
      "Ġmy": 423,
      "ĠP": 424,
      "um": 425,
      "ev": 426,
      "Ġlo": 427,
      "ĠĠĠĠĠ": 428,
      "ag": 429,
      "ink": 430,
      "ul": 431,
      "Ġ-": 432,
      "hy": 433,
      "ĠĠĠĠĠĠĠ": 434,
      "ain": 435,
      "imary": 436,
      "ter": 437,
      "form": 438,
      "ĠL": 439,
      "primary": 440,
      "Ġof": 441,
      "up": 442,
      "201": 443,
      "Ġon": 444,
      "cept": 445,
      "Ġus": 446,
      "Ġ`": 447,
      "ork": 448,
      "los": 449,
      "ay": 450,
      "Ġthat": 451,
      "Ġdo": 452,
      "ive": 453,
      "--------": 454,
      "hilos": 455,
      "hilosop": 456,
      "ame": 457,
      "ru": 458,
      "ine": 459,
      "ĠUser": 460,
      "ss": 461,
      "Ġor": 462,
      "ols": 463,
      "emory": 464,
      "Ġex": 465,
      "qu": 466,
      "hilosophy": 467,
      "rom": 468,
      "Ġan": 469,
      "end": 470,
      "sp": 471,
      "alu": 472,
      "Ġ=": 473,
      "out": 474,
      "Ġr": 475,
      "```": 476,
      "ef": 477,
      "ĠF": 478,
      "ri": 479,
      "ep": 480,
      "You": 481,
      "ear": 482,
      "ĠE": 483,
      "vers": 484,
      "ud": 485,
      "ht": 486,
      "Ġfact": 487,
      "ort": 488,
      "Ġmod": 489,
      "level": 490,
      "ĠMy": 491,
      "ations": 492,
      "yst": 493,
      "ir": 494,
      "ple": 495,
      "ystem": 496,
      "Ġact": 497,
      "ener": 498,
      "ant": 499,
      "core": 500,
      "Ġ2": 501,
      "ll": 502,
      "ĠâĢ": 503,
      "fe": 504,
      "Ġcontext": 505,
      "Ġâ": 506,
      "'s": 507,
      ".\\": 508,
      "ĠN": 509,
      "Ġcom": 510,
      "ĠD": 511,
      "and": 512,
      "Ġme": 513,
      "ĠĠĠĠĠĠĠĠĠĠĠĠĠĠĠĠ": 514,
      "iz": 515,
      "inking": 516,
      "Ġyour": 517,
      "Ġconcept": 518,
      "ruct": 519,
      "int": 520,
      "âĶĢâĶĢâĶĢâĶĢâĶĢâĶĢâĶĢâĶĢ": 521,
      "Ġup": 522,
      "âĢĻ": 523,
      "---": 524,
      "elf": 525,
      "able": 526,
      "iv": 527,
      "pro": 528,
      "py": 529,
      "Ġcan": 530,
      "ho": 531,
      "Ġfrom": 532,
      "ust": 533,
      "ack": 534,
      "ĠĊ": 535,
      "Ġne": 536,
      "Ġle": 537,
      "Ġas": 538,
      "Ġsc": 539,
      "ĠĠĊ": 540,
      "ren": 541,
      "\\\"": 542,
      "ach": 543,
      "ight": 544,
      "ace": 545,
      "Ġ{": 546,
      "philosophy": 547,
      "ated": 548,
      "cess": 549,
      "Ġwork": 550,
      "Ġtr": 551,
      "====": 552,
      "ci": 553,
      "ode": 554,
      "ally": 555,
      "ĠThe": 556,
      "all": 557,
      "age": 558,
      "ĠO": 559,
      "Ġnot": 560,
      "Ġget": 561,
      "yp": 562,
      "Ġev": 563,
      "ance": 564,
      "Ġwe": 565,
      "tools": 566,
      "Ġsystem": 567,
      "Ġhi": 568,
      ":\\": 569,
      "ĠâĢĶ": 570,
      "ount": 571,
      "ata": 572,
      "ĠWH": 573,
      "Ġ3": 574,
      "ĠH": 575,
      "Ġbe": 576,
      "ĠB": 577,
      "ents": 578,
      "tern": 579,
      "Ġsh": 580,
      "ign": 581,
      "Ġlog": 582,
      "Ġidentity": 583,
      "our": 584,
      "port": 585,
      "),": 586,
      "lex": 587,
      "ule": 588,
      ":**": 589,
      "Ġ*": 590,
      "AT": 591,
      "ies": 592,
      "ver": 593,
      "Ġgr": 594,
      "hen": 595,
      "Ġare": 596,
      "Ġ\\\"": 597,
      "count": 598,
      "pl": 599,
      "ass": 600,
      "story": 601,
      "ructure": 602,
      "ĠĠĠĠĠĠĠĠĠĠĠ": 603,
      "2019": 604,
      "Ġif": 605,
      "ĠYou": 606,
      "file": 607,
      "###": 608,
      "ac": 609,
      "ld": 610,
      "()": 611,
      "ĠRe": 612,
      "ire": 613,
      "Ġthread": 614,
      "ject": 615,
      "tr": 616,
      "Ġim": 617,
      "Ġmodel": 618,
      "ĠTh": 619,
      "key": 620,
      "gener": 621,
      "art": 622,
      "po": 623,
      "ast": 624,
      "ction": 625,
      "Ġhe": 626,
      "Ġmemory": 627,
      "Ġupd": 628,
      "alues": 629,
      "ill": 630,
      "dd": 631,
      "Ġac": 632,
      "Ġthis": 633,
      "Ġ'": 634,
      "log": 635,
      "Ġal": 636,
      "Ġj": 637,
      "Ġstate": 638,
      "now": 639,
      "ment": 640,
      "Ġsp": 641,
      "name": 642,
      "ub": 643,
      "one": 644,
      "urn": 645,
      "ery": 646,
      "Ġk": 647,
      "rent": 648,
      "Ġhistory": 649,
      "Ġdoc": 650,
      "uil": 651,
      "actions": 652,
      "general": 653,
      "ĠG": 654,
      "Ġuse": 655,
      "hip": 656,
      "ind": 657,
      "ike": 658,
      "ous": 659,
      "Ġpat": 660,
      "|--------": 661,
      "Ġag": 662,
      "earch": 663,
      "Ġen": 664,
      "gr": 665,
      "Ġtim": 666,
      "Ġwhat": 667,
      "put": 668,
      "Ġar": 669,
      "Ġstructure": 670,
      "ult": 671,
      "âĶĤ": 672,
      "ession": 673,
      "The": 674,
      "ould": 675,
      "ave": 676,
      "ecut": 677,
      "aly": 678,
      "linking": 679,
      "ide": 680,
      "alue": 681,
      "Ġref": 682,
      "memory": 683,
      "ĨĴ": 684,
      "oc": 685,
      "ON": 686,
      "Ġ}": 687,
      "thon": 688,
      "Ġse": 689,
      "Ġfile": 690,
      "ason": 691,
      "Ġet": 692,
      "ĠSt": 693,
      "ang": 694,
      "versation": 695,
      "ound": 696,
      "aph": 697,
      "Ġconcepts": 698,
      "umm": 699,
      "Ġsearch": 700,
      "Ġneed": 701,
      "Ġ[": 702,
      "Ġat": 703,
      "mod": 704,
      "pre": 705,
      "Ġupdate": 706,
      "ðŁ": 707,
      "hic": 708,
      "Ġ20": 709,
      "oug": 710,
      "ationship": 711,
      "tim": 712,
      "lationship": 713,
      "Ġhas": 714,
      "Ġknow": 715,
      "str": 716,
      "ype": 717,
      "ard": 718,
      ")\\": 719,
      "Ġjust": 720,
      "Ġbut": 721,
      "vi": 722,
      "chit": 723,
      "chitect": 724,
      "Ġ<": 725,
      "21": 726,
      "ĠAI": 727,
      "Ġ5": 728,
      "abil": 729,
      "oring": 730,
      "Ġreason": 731,
      "Ġform": 732,
      "ew": 733,
      "Ġlike": 734,
      "ATE": 735,
      "run": 736,
      "Ġgraph": 737,
      "ail": 738,
      "und": 739,
      "Ġ+": 740,
      "levance": 741,
      "ite": 742,
      "Ġrun": 743,
      "Ġself": 744,
      "Ġint": 745,
      "Ġdata": 746,
      "Ġwho": 747,
      "'t": 748,
      "ens": 749,
      "ence": 750,
      "thread": 751,
      "Ġ==": 752,
      "**:": 753,
      "Ġby": 754,
      "Ġreasoning": 755,
      "Ġbuil": 756,
      "Ġ/": 757,
      "com": 758,
      "ĠST": 759,
      "context": 760,
      "Ġfacts": 761,
      "Ġdocum": 762,
      "ak": 763,
      "Ġhave": 764,
      "space": 765,
      "cl": 766,
      "test": 767,
      "Ġcl": 768,
      "ase": 769,
      "2014": 770,
      "ĠâĨĴ": 771,
      "Ġcont": 772,
      "chitecture": 773,
      "ĠSTATE": 774,
      "quest": 775,
      "ere": 776,
      "get": 777,
      "ize": 778,
      "Ġtools": 779,
      "ola": 780,
      "heck": 781,
      "Ġ#": 782,
      "arn": 783,
      "Ġusing": 784,
      ").": 785,
      "Ġe": 786,
      "Ġret": 787,
      "========": 788,
      "og": 789,
      "arch": 790,
      "self": 791,
      "Ġdes": 792,
      "low": 793,
      "ok": 794,
      "Ġuser": 795,
      "achine": 796,
      "ost": 797,
      "old": 798,
      "Ġâľ": 799,
      "Ġch": 800,
      "ĠCon": 801,
      "Ġchat": 802,
      "Ġcre": 803,
      "Ġcode": 804,
      "aint": 805,
      "Ġab": 806,
      "Ġlink": 807,
      "Ġkey": 808,
      "Ġreflex": 809,
      "work": 810,
      "Ġvalues": 811,
      "own": 812,
      "Ġpre": 813,
      "Ġop": 814,
      "âĶĢâĶĢâĶĢâĶĢâĶĢâĶĢâĶĢâĶĢâĶĢâĶĢâĶĢâĶĢâĶĢâĶĢâĶĢâĶĢ": 815,
      "Ġwhen": 816,
      "Ġpattern": 817,
      "Ġethic": 818,
      "Ġ_": 819,
      "83": 820,
      "are": 821,
      "..": 822,
      "ble": 823,
      "LM": 824,
      "ord": 825,
      "Ġdis": 826,
      "Ġlearn": 827,
      "ities": 828,
      "ctx": 829,
      "Ġgener": 830,
      "ĠJ": 831,
      "sol": 832,
      "02": 833,
      "app": 834,
      "ical": 835,
      "```\\": 836,
      "Ġpr": 837,
      "erson": 838,
      "RE": 839,
      "unction": 840,
      "aris": 841,
      "type": 842,
      "son": 843,
      "ans": 844,
      "Ġadd": 845,
      "ors": 846,
      "Ġagent": 847,
      "spon": 848,
      "Ġap": 849,
      "Ġcle": 850,
      "Ġ0": 851,
      "ĠQ": 852,
      "eli": 853,
      "Ġphilosophy": 854,
      "ĠWhat": 855,
      "urrent": 856,
      "os": 857,
      "Ġout": 858,
      "ath": 859,
      "ection": 860,
      "ge": 861,
      "Ġcap": 862,
      "._": 863,
      "amp": 864,
      "Ġlist": 865,
      "sis": 866,
      "\"\"": 867,
      "ely": 868,
      "ask": 869,
      "Ġstr": 870,
      "Ġso": 871,
      "Ġinto": 872,
      "ĠEx": 873,
      "Ġanaly": 874,
      "ates": 875,
      "::": 876,
      "eline": 877,
      "ĠâĶĤ": 878,
      "ĠV": 879,
      "ial": 880,
      "action": 881,
      "row": 882,
      "Ġ~": 883,
      "What": 884,
      "ummary": 885,
      "Ġ10": 886,
      "ĠFile": 887,
      "Ġno": 888,
      "Ġarchitecture": 889,
      "'re": 890,
      "ĠQu": 891,
      "ature": 892,
      "Ġlinking": 893,
      "ĠðŁ": 894,
      "Ġnew": 895,
      "Ġfr": 896,
      "ĠLLM": 897,
      "Ġfe": 898,
      "ific": 899,
      "Ġrelevance": 900,
      "Ġwill": 901,
      "Ġqu": 902,
      "Ġreturn": 903,
      "Ġass": 904,
      "Ġpl": 905,
      "ough": 906,
      "emb": 907,
      "ĠPro": 908,
      "ull": 909,
      "ual": 910,
      "Ġun": 911,
      "12": 912,
      "Ġ},": 913,
      "Ġbuild": 914,
      "elief": 915,
      "sci": 916,
      "Ġall": 917,
      "Ġimport": 918,
      "Ġcapabil": 919,
      "Ġext": 920,
      "value": 921,
      "Ġrelationship": 922,
      "Ġscoring": 923,
      "---\\": 924,
      "ry": 925,
      "^^": 926,
      "versations": 927,
      "Ġwr": 928,
      "istant": 929,
      "estamp": 930,
      "ong": 931,
      "ĠTo": 932,
      "Ġactions": 933,
      "Ġcheck": 934,
      "ĠThis": 935,
      "000": 936,
      "27": 937,
      "Ġproject": 938,
      "sh": 939,
      "ark": 940,
      "irst": 941,
      "ĠMod": 942,
      "ersonal": 943,
      "Ġworkspace": 944,
      "gth": 945,
      "ecute": 946,
      "ade": 947,
      "we": 948,
      "cri": 949,
      "scious": 950,
      "ĠThread": 951,
      "rence": 952,
      "python": 953,
      "Th": 954,
      "Ġbec": 955,
      "conversation": 956,
      "use": 957,
      "Ġcapabilities": 958,
      "Ġnow": 959,
      "evel": 960,
      "Ġper": 961,
      "machine": 962,
      "ĠĠĠĠĠĠĠĠĠĠĠĠĠĠĠ": 963,
      "Ġmodule": 964,
      "under": 965,
      "Ġaut": 966,
      "search": 967,
      "Ġdef": 968,
      "ip": 969,
      "av": 970,
      "2502": 971,
      "per": 972,
      "fig": 973,
      "ternal": 974,
      "Ġwant": 975,
      "ĠIt": 976,
      "Ġmore": 977,
      "ome": 978,
      "ict": 979,
      "OS": 980,
      "Ġtool": 981,
      "rec": 982,
      "Ġlet": 983,
      "Ġdoes": 984,
      "Ġhow": 985,
      "ell": 986,
      "json": 987,
      "Ġgo": 988,
      "model": 989,
      "Ġpar": 990,
      "atch": 991,
      "Ġinst": 992,
      "ness": 993,
      "Ġsu": 994,
      "Ġpatterns": 995,
      "Ġhel": 996,
      "2025": 997,
      "Ġconversations": 998,
      "ĠĠĠĠĠĠĠĠĠ": 999,
      "11": 1000,
      "Ġde": 1001,
      "rength": 1002,
      "26": 1003,
      "Ġad": 1004,
      "Con": 1005,
      "concept": 1006,
      "Ġabout": 1007,
      "emo": 1008,
      "Ġrem": 1009,
      "ech": 1010,
      "yle": 1011,
      "ccess": 1012,
      "Ġback": 1013,
      "ces": 1014,
      "Ġthey": 1015,
      "PI": 1016,
      "ake": 1017,
      "10": 1018,
      "ĠRE": 1019,
      "Ġav": 1020,
      "Ġwhi": 1021,
      "year": 1022,
      "219": 1023,
      "Ġcall": 1024,
      "here": 1025,
      "Ġprom": 1026,
      "Ġinternal": 1027,
      "Ġset": 1028,
      "day": 1029,
      "Ġrespon": 1030,
      "Ġtimeline": 1031,
      "Ġsession": 1032,
      "Ġcurrent": 1033,
      "Ġsee": 1034,
      "af": 1035,
      "TE": 1036,
      "ick": 1037,
      "che": 1038,
      "**\\": 1039,
      "feed": 1040,
      "tool": 1041,
      "85": 1042,
      "ĠNola": 1043,
      "Ġtest": 1044,
      "evelop": 1045,
      "AI": 1046,
      "ma": 1047,
      "\")": 1048,
      "Ġlinks": 1049,
      "Ġany": 1050,
      "Ġdocuments": 1051,
      "Ġdisc": 1052,
      "timestamp": 1053,
      "Ġone": 1054,
      "Ġ$": 1055,
      "sion": 1056,
      "Ġevent": 1057,
      "Ġconn": 1058,
      "Ġi": 1059,
      "Ġfind": 1060,
      "Ġ4": 1061,
      "ĠLet": 1062,
      "ased": 1063,
      "yn": 1064,
      "ama": 1065,
      "Ġaccess": 1066,
      "ĠFiles": 1067,
      "ther": 1068,
      "Ġevery": 1069,
      "led": 1070,
      "ings": 1071,
      "ause": 1072,
      "cy": 1073,
      "ization": 1074,
      "ypes": 1075,
      "ages": 1076,
      "Ġcomp": 1077,
      "Ġloop": 1078,
      "EN": 1079,
      "irect": 1080,
      "ython": 1081,
      "Ġ|\\": 1082,
      "âĢĶ": 1083,
      "Ġmet": 1084,
      "ines": 1085,
      "its": 1086,
      "aining": 1087,
      "ically": 1088,
      "assistant": 1089,
      "Ġits": 1090,
      "cal": 1091,
      "Ġover": 1092,
      "ov": 1093,
      "Ġreal": 1094,
      "Ġshort": 1095,
      "aces": 1096,
      "lock": 1097,
      "2192": 1098,
      "laris": 1099,
      "ĠIn": 1100,
      "te": 1101,
      "):": 1102,
      "ross": 1103,
      "concepts": 1104,
      "AL": 1105,
      "rough": 1106,
      "Ġexist": 1107,
      "uture": 1108,
      "Ġsim": 1109,
      "atures": 1110,
      "ude": 1111,
      "oci": 1112,
      "active": 1113,
      "tent": 1114,
      "ition": 1115,
      "thing": 1116,
      "Ġprompt": 1117,
      "su": 1118,
      "Ġcreate": 1119,
      "Ġpo": 1120,
      "PT": 1121,
      "stand": 1122,
      "Ġam": 1123,
      "strength": 1124,
      "conversational": 1125,
      "ected": 1126,
      "Ġcomm": 1127,
      "ont": 1128,
      "`,": 1129,
      "ning": 1130,
      "idation": 1131,
      "gg": 1132,
      "Ġread": 1133,
      "acts": 1134,
      "du": 1135,
      "ually": 1136,
      "Ġactive": 1137,
      ">\\": 1138,
      "Ġunder": 1139,
      "SON": 1140,
      "Ġprofile": 1141,
      "Ġdiscus": 1142,
      "sult": 1143,
      "Ġvi": 1144,
      "lect": 1145,
      "|------------": 1146,
      "Ġeach": 1147,
      "eliefs": 1148,
      "Ġspec": 1149,
      "Ġfunction": 1150,
      "emp": 1151,
      "ĠAdd": 1152,
      ".**": 1153,
      "Ġaw": 1154,
      "Ġstart": 1155,
      "Ġdat": 1156,
      "Ġmess": 1157,
      "05": 1158,
      "ative": 1159,
      "oll": 1160,
      "80": 1161,
      "igg": 1162,
      "Ġfiles": 1163,
      "Ġthrough": 1164,
      "gent": 1165,
      "Ġstyle": 1166,
      "Ġour": 1167,
      "Ġvalue": 1168,
      "Ġactiv": 1169,
      "ateg": 1170,
      "CH": 1171,
      "Ġclean": 1172,
      "Ġtok": 1173,
      "ours": 1174,
      "',": 1175,
      "ption": 1176,
      "Ġdep": 1177,
      "version": 1178,
      "ĠAPI": 1179,
      "Ġspread": 1180,
      "Ġchang": 1181,
      "of": 1182,
      "amework": 1183,
      "point": 1184,
      "Ġman": 1185,
      "api": 1186,
      "ĠRead": 1187,
      "atus": 1188,
      "Ġtime": 1189,
      "estion": 1190,
      "Ġthem": 1191,
      "--|": 1192,
      "code": 1193,
      "Ġser": 1194,
      "Ġrec": 1195,
      "Ġcore": 1196,
      "Ex": 1197,
      "Ġbo": 1198,
      "ogn": 1199,
      "edd": 1200,
      "XT": 1201,
      "ix": 1202,
      "cut": 1203,
      "ency": 1204,
      "apt": 1205,
      "ash": 1206,
      "60": 1207,
      "module": 1208,
      "Ġdon": 1209,
      "gex": 1210,
      "ĠYour": 1211,
      "Ġdif": 1212,
      "Ġextr": 1213,
      "Ġdec": 1214,
      "ference": 1215,
      "Ġâľĵ": 1216,
      "Ġsche": 1217,
      "Ġshow": 1218,
      "state": 1219,
      "col": 1220,
      "igned": 1221,
      "Ġethics": 1222,
      "bo": 1223,
      "aw": 1224,
      "enting": 1225,
      "âĢĿ": 1226,
      "Ġinter": 1227,
      "Ġdiscussion": 1228,
      "ib": 1229,
      "ror": 1230,
      "traces": 1231,
      "fect": 1232,
      "ĠModule": 1233,
      "ref": 1234,
      "Now": 1235,
      "Ġâľħ": 1236,
      "Ġweight": 1237,
      "ĠPast": 1238,
      "straint": 1239,
      "ĠQuestion": 1240,
      "ĠJSON": 1241,
      "ready": 1242,
      "relationship": 1243,
      "=\"": 1244,
      "sist": 1245,
      "HE": 1246,
      "project": 1247,
      "Ġacross": 1248,
      "ĠIf": 1249,
      "Ġconversation": 1250,
      "data": 1251,
      "(\"": 1252,
      "ating": 1253,
      "\\\":": 1254,
      "Ġworking": 1255,
      "Ġro": 1256,
      "Ġtext": 1257,
      "Ġwithout": 1258,
      "This": 1259,
      "Ġdirect": 1260,
      "ought": 1261,
      "load": 1262,
      "St": 1263,
      "ummar": 1264,
      "ful": 1265,
      "ced": 1266,
      "erm": 1267,
      "ĠThat": 1268,
      "ily": 1269,
      "Ġonly": 1270,
      "Ġ2025": 1271,
      "Ġrout": 1272,
      "Ġlearned": 1273,
      "Ġdet": 1274,
      "Ġhand": 1275,
      "================": 1276,
      "onit": 1277,
      "Ġincl": 1278,
      "ays": 1279,
      "Ġhelp": 1280,
      "gram": 1281,
      "rosp": 1282,
      "Ġanalyz": 1283,
      "ead": 1284,
      "Ġblock": 1285,
      "ĠPython": 1286,
      "ĠK": 1287,
      "inal": 1288,
      "ource": 1289,
      "les": 1290,
      "riend": 1291,
      "Ġpath": 1292,
      "analy": 1293,
      "pose": 1294,
      "ĠOS": 1295,
      "cuts": 1296,
      "ond": 1297,
      "uration": 1298,
      "Ġlogs": 1299,
      "irth": 1300,
      "Ġrequest": 1301,
      "chat": 1302,
      "ern": 1303,
      "23": 1304,
      "Ġco": 1305,
      "Ġclass": 1306,
      "erest": 1307,
      "solidation": 1308,
      "but": 1309,
      "llm": 1310,
      "Ġthreads": 1311,
      "ĠStore": 1312,
      "plement": 1313,
      "Ġend": 1314,
      "Ġwhere": 1315,
      "Ġsol": 1316,
      "ustom": 1317,
      "tocol": 1318,
      "Ġawa": 1319,
      "ĠCON": 1320,
      "|----------": 1321,
      "Ġbet": 1322,
      "OW": 1323,
      "ement": 1324,
      "ife": 1325,
      "profile": 1326,
      "Ġpoint": 1327,
      "//": 1328,
      "Ġlevel": 1329,
      "Ġframework": 1330,
      "Ġprint": 1331,
      "session": 1332,
      "omet": 1333,
      "Ġavg": 1334,
      "Ġapp": 1335,
      "conscious": 1336,
      "Ġem": 1337,
      "ired": 1338,
      "ample": 1339,
      "irthday": 1340,
      "\\\",": 1341,
      "Ġshortcuts": 1342,
      "Ġbecause": 1343,
      "Ġformat": 1344,
      "rue": 1345,
      "ility": 1346,
      "Ġcomple": 1347,
      "itive": 1348,
      "system": 1349,
      "|--------------|": 1350,
      "ĠĠĠĠĠĠĠĠĠĠĠĠĠĠĠĠĠĠĠ": 1351,
      "threads": 1352,
      "Ġstep": 1353,
      "Ġname": 1354,
      "Ġfirst": 1355,
      "Ġpersonal": 1356,
      "Let": 1357,
      "Ġright": 1358,
      "Ġoutput": 1359,
      "2705": 1360,
      "Ġquery": 1361,
      "idea": 1362,
      "Ġexpl": 1363,
      "Ġprov": 1364,
      "ignal": 1365,
      "TEXT": 1366,
      "keys": 1367,
      "Ġparam": 1368,
      "Ġdemo": 1369,
      "ersist": 1370,
      "Ġmark": 1371,
      "Ġ8": 1372,
      "ĠWHAT": 1373,
      "sing": 1374,
      "**,": 1375,
      "|----------|--------------|": 1376,
      "egr": 1377,
      "Ġ|--------": 1378,
      "Ġuses": 1379,
      "Ġdescri": 1380,
      "Ġ|--------|----------|--------------|": 1381,
      "analysis": 1382,
      "Ġautom": 1383,
      "...": 1384,
      "ALL": 1385,
      "ise": 1386,
      "ĠCONTEXT": 1387,
      "blem": 1388,
      "so": 1389,
      "ism": 1390,
      "Ġsystems": 1391,
      "ify": 1392,
      "ized": 1393,
      "Ġel": 1394,
      "__": 1395,
      "Ġconstraint": 1396,
      "Ġent": 1397,
      "ice": 1398,
      "Ġcompre": 1399,
      "Ġwhich": 1400,
      "ĠWHY": 1401,
      "Ġneeded": 1402,
      "Ġtheir": 1403,
      "ĠWHO": 1404,
      "time": 1405,
      "cores": 1406,
      "Ġmodels": 1407,
      "amily": 1408,
      "eveloper": 1409,
      "ĠHOW": 1410,
      "Ġsummar": 1411,
      "ĠWHEN": 1412,
      "HERE": 1413,
      "ied": 1414,
      "Ġsub": 1415,
      "WHERE": 1416,
      "Ġsec": 1417,
      "par": 1418,
      "()`": 1419,
      "ĠREC": 1420,
      "inci": 1421,
      "Ġsummary": 1422,
      "ICH": 1423,
      "inciple": 1424,
      "ĠWHICH": 1425,
      "01": 1426,
      "future": 1427,
      "ĠâĢľ": 1428,
      "Ġshould": 1429,
      "ĠRECALL": 1430,
      "import": 1431,
      "Ġcould": 1432,
      ").\\": 1433,
      "Ġown": 1434,
      "ĠAgent": 1435,
      "back": 1436,
      "Ġmat": 1437,
      "Ġph": 1438,
      "ives": 1439,
      "ĠFor": 1440,
      "Ġactivation": 1441,
      "Ġtry": 1442,
      "Ġpart": 1443,
      "features": 1444,
      "ha": 1445,
      "14": 1446,
      "Ġthen": 1447,
      "Ġlay": 1448,
      "ferent": 1449,
      "360": 1450,
      "sive": 1451,
      "inu": 1452,
      "50": 1453,
      "Ġschema": 1454,
      "uth": 1455,
      "udc": 1456,
      "values": 1457,
      "^^^^": 1458,
      "Ġid": 1459,
      "rol": 1460,
      "Ġalready": 1461,
      "ocum": 1462,
      "ontend": 1463,
      "ts": 1464,
      "Ġwrite": 1465,
      "\\\"\\": 1466,
      "Ġmin": 1467,
      "Ġcustom": 1468,
      "cur": 1469,
      "Ġgenerate": 1470,
      "ĠTool": 1471,
      "urns": 1472,
      "ME": 1473,
      "Ġlook": 1474,
      "hing": 1475,
      "Ġwas": 1476,
      "19": 1477,
      "30": 1478,
      "Ġwould": 1479,
      "ĠUI": 1480,
      "Ġprocess": 1481,
      "Ġtable": 1482,
      "comm": 1483,
      "Ġclear": 1484,
      "standing": 1485,
      "ural": 1486,
      "tention": 1487,
      "Ġlogic": 1488,
      "ible": 1489,
      "ocus": 1490,
      "fl": 1491,
      "Ġlocal": 1492,
      "agent": 1493,
      "That": 1494,
      "ĠNo": 1495,
      "ove": 1496,
      "Ġfriend": 1497,
      ".\",": 1498,
      "Go": 1499,
      "call": 1500,
      "Ġspecific": 1501,
      "top": 1502,
      "execute": 1503,
      "ĠWho": 1504,
      "urpose": 1505,
      "AD": 1506,
      "struct": 1507,
      "recated": 1508,
      "Ġbound": 1509,
      "ories": 1510,
      "Ġresponse": 1511,
      "request": 1512,
      "ĠAl": 1513,
      "Ġfull": 1514,
      "eld": 1515,
      "reak": 1516,
      "ĠCom": 1517,
      "view": 1518,
      "ability": 1519,
      "ree": 1520,
      "riv": 1521,
      "oral": 1522,
      "Ġextract": 1523,
      "lic": 1524,
      "Ġanalysis": 1525,
      "reness": 1526,
      "div": 1527,
      "ps": 1528,
      "If": 1529,
      "Ġ18": 1530,
      "Ġbr": 1531,
      "md": 1532,
      "Ġthan": 1533,
      "ync": 1534,
      "],": 1535,
      "ĠElaris": 1536,
      "Ġthere": 1537,
      "Ġplan": 1538,
      "gh": 1539,
      "summary": 1540,
      "ĠĠĠĠĊ": 1541,
      "ah": 1542,
      "gist": 1543,
      "MA": 1544,
      "dated": 1545,
      "On": 1546,
      "ses": 1547,
      "ient": 1548,
      "Ġsome": 1549,
      "ular": 1550,
      "omain": 1551,
      "eed": 1552,
      "Ġlines": 1553,
      "ision": 1554,
      "be": 1555,
      "Ġetc": 1556,
      "not": 1557,
      "Ġsm": 1558,
      "Ġdeep": 1559,
      "Ġmake": 1560,
      "Ġ&": 1561,
      "Ġfamily": 1562,
      "efore": 1563,
      "ND": 1564,
      "Ġexecut": 1565,
      "Ġresult": 1566,
      "formation": 1567,
      "In": 1568,
      "rompt": 1569,
      "enu": 1570,
      "ognitive": 1571,
      "dentity": 1572,
      "ulti": 1573,
      "ãĢ": 1574,
      "Ġsection": 1575,
      "less": 1576,
      "from": 1577,
      "ream": 1578,
      "keep": 1579,
      "Ġbuilt": 1580,
      "ting": 1581,
      "Ġdoesn": 1582,
      ");": 1583,
      "havi": 1584,
      "onest": 1585,
      "://": 1586,
      "Ġ\"\"\"": 1587,
      "Ġline": 1588,
      "Ġworks": 1589,
      "ands": 1590,
      "Ġisn": 1591,
      "ĠĠĠĠĠĠĠĠĠĠĠĠĠĠĠĠĠĠĠĠĠĠĠĠĠĠĠĠĠĠĠĠ": 1592,
      "Ġproblem": 1593,
      "ggest": 1594,
      "ssh": 1595,
      "Ġnext": 1596,
      "ĠĠĠĠĠĠĠĠĠĠĠĠĠ": 1597,
      "Ġlong": 1598,
      "anism": 1599,
      "Ġgeneration": 1600,
      "tal": 1601,
      "Ġendpoint": 1602,
      "DE": 1603,
      "gine": 1604,
      "def": 1605,
      "**.": 1606,
      "reflex": 1607,
      "Ġactually": 1608,
      "ics": 1609,
      "Ġthese": 1610,
      "?\",": 1611,
      "Ġtraining": 1612,
      "path": 1613,
      "llama": 1614,
      "ĠInt": 1615,
      "lated": 1616,
      "nYou": 1617,
      "Ġkeys": 1618,
      "âĶĢâĶĢâĶĢâĶĢâĶĢâĶĢâĶĢâĶĢâĶĢâĶĢâĶĢâĶĢâĶĢâĶĢâĶĢâĶĢâĶĢâĶĢâĶĢâĶĢâĶĢâĶĢâĶĢâĶĢâĶĢâĶĢâĶĢâĶĢâĶĢâĶĢâĶĢâĶĢ": 1619,
      "rospect": 1620,
      "Ġexp": 1621,
      "new": 1622,
      "Ġeven": 1623,
      ":::": 1624,
      "24": 1625,
      "Ġinput": 1626,
      "uild": 1627,
      "ĠâĶ": 1628,
      "Ġpersist": 1629,
      "sers": 1630,
      "Ġexecute": 1631,
      "omething": 1632,
      "ield": 1633,
      "Ġimplement": 1634,
      "How": 1635,
      "Ġleg": 1636,
      "Ġaf": 1637,
      "ktop": 1638,
      "function": 1639,
      "Des": 1640,
      "ĠAn": 1641,
      "Ġconscious": 1642,
      "Ġfeed": 1643,
      "Ġhere": 1644,
      "Ġassoci": 1645,
      "orre": 1646,
      "Ġvia": 1647,
      "'ll": 1648,
      "Ġdifferent": 1649,
      "Ġhead": 1650,
      "ledge": 1651,
      "types": 1652,
      "pen": 1653,
      "dep": 1654,
      "Ġ7": 1655,
      "older": 1656,
      "LE": 1657,
      "adata": 1658,
      "udd": 1659,
      "activ": 1660,
      "ĠAp": 1661,
      "ĠReal": 1662,
      "Ġframeworks": 1663,
      "cade": 1664,
      "abase": 1665,
      ":**\\": 1666,
      "Ġkeep": 1667,
      "esp": 1668,
      "oup": 1669,
      "Ġethical": 1670,
      "ier": 1671,
      "Ġyear": 1672,
      "Ġinclude": 1673,
      "beliefs": 1674,
      "link": 1675,
      "Ġstore": 1676,
      "ose": 1677,
      "Ġconfig": 1678,
      "imit": 1679,
      "Ġelse": 1680,
      "Ġmight": 1681,
      "17": 1682,
      "Ġhours": 1683,
      "akes": 1684,
      "Ġtheory": 1685,
      "Ġsuggest": 1686,
      "Ġvers": 1687,
      "Ġvs": 1688,
      "Ġtypes": 1689,
      "ĠPl": 1690,
      "tion": 1691,
      "ĠAss": 1692,
      "Ġhapp": 1693,
      "Ġtask": 1694,
      "env": 1695,
      "ground": 1696,
      "ets": 1697,
      "the": 1698,
      "ribut": 1699,
      "49": 1700,
      "Ġ6": 1701,
      "mom": 1702,
      "Ġsomething": 1703,
      "Ġsame": 1704,
      "Ġed": 1705,
      "Ġawareness": 1706,
      "sister": 1707,
      "Ġer": 1708,
      "ik": 1709,
      "Ġconnected": 1710,
      "={": 1711,
      "Ġbuilding": 1712,
      "Ġ15": 1713,
      "als": 1714,
      "emporal": 1715,
      "Ġphone": 1716,
      "workspace": 1717,
      "Ġask": 1718,
      "igger": 1719,
      "Ġcalls": 1720,
      "recent": 1721,
      "vo": 1722,
      "start": 1723,
      "ĠExtr": 1724,
      "face": 1725,
      "ctions": 1726,
      "Ġconsciousness": 1727,
      ".\"": 1728,
      "06": 1729,
      "Ġdesign": 1730,
      "cre": 1731,
      "/.": 1732,
      "Ġstill": 1733,
      "ignment": 1734,
      "ault": 1735,
      "edi": 1736,
      "Ġ9": 1737,
      "Ġsummarize": 1738,
      "ĠWhen": 1739,
      "duration": 1740,
      "Ġbefore": 1741,
      "Ġemb": 1742,
      "ĠTr": 1743,
      "Ġother": 1744,
      "prov": 1745,
      "âĨĴ": 1746,
      "down": 1747,
      "resh": 1748,
      "Ġopen": 1749,
      "ever": 1750,
      "----------------": 1751,
      "Mod": 1752,
      "Ġgenu": 1753,
      "Ġanalyze": 1754,
      "Ġtech": 1755,
      "Ġwhile": 1756,
      "personal": 1757,
      "2026": 1758,
      "dad": 1759,
      "anced": 1760,
      "Ġusage": 1761,
      ".,": 1762,
      "param": 1763,
      "Desktop": 1764,
      "Ġconst": 1765,
      "ĠAccess": 1766,
      "Ġbreak": 1767,
      "onds": 1768,
      "Ĳâ": 1769,
      "\"\"\"": 1770,
      "Ġhigh": 1771,
      "ĠĠĠĠĠĠ": 1772,
      "ware": 1773,
      "Ġ->": 1774,
      "thought": 1775,
      "inely": 1776,
      "Ġgrow": 1777,
      "Ġsignal": 1778,
      "SE": 1779,
      "eop": 1780,
      "introspect": 1781,
      "eople": 1782,
      "Ġsup": 1783,
      "ton": 1784,
      "ĠWe": 1785,
      "ĠGPT": 1786,
      "oop": 1787,
      "ator": 1788,
      "alth": 1789,
      "Ġfl": 1790,
      "ween": 1791,
      "gre": 1792,
      "ution": 1793,
      "based": 1794,
      "Ġeverything": 1795,
      "very": 1796,
      "15": 1797,
      "fr": 1798,
      "Ġday": 1799,
      "alid": 1800,
      "Ġalso": 1801,
      "Ġprofiles": 1802,
      "Ġdocument": 1803,
      "Ġadded": 1804,
      "essage": 1805,
      "success": 1806,
      "ĠRelevance": 1807,
      "Ġcontrol": 1808,
      "IN": 1809,
      "Ġmessage": 1810,
      "Ġadv": 1811,
      "Ġgenuinely": 1812,
      "ript": 1813,
      "Ġscript": 1814,
      "hensive": 1815,
      "Users": 1816,
      "Ġweb": 1817,
      "Ġgroup": 1818,
      "Ġtokens": 1819,
      "ķĲâ": 1820,
      "ĠIm": 1821,
      "Pro": 1822,
      "nThe": 1823,
      "logs": 1824,
      "history": 1825,
      "Hub": 1826,
      "38": 1827,
      "process": 1828,
      "io": 1829,
      "Ġtoken": 1830,
      "ten": 1831,
      "ADME": 1832,
      "Ġfix": 1833,
      "ains": 1834,
      "itHub": 1835,
      "ĠQuery": 1836,
      "aper": 1837,
      "vice": 1838,
      "âľ": 1839,
      "Ġbetween": 1840,
      "Name": 1841,
      "side": 1842,
      "ale": 1843,
      "Ġexact": 1844,
      "Nola": 1845,
      "Ġcateg": 1846,
      "ments": 1847,
      "*.": 1848,
      "Ġcomprehensive": 1849,
      "Ġintegr": 1850,
      "No": 1851,
      "ters": 1852,
      "uman": 1853,
      "Ġbounds": 1854,
      "ķĲâķĲâ": 1855,
      "board": 1856,
      "Ġcustomization": 1857,
      "Ġlearning": 1858,
      "ocumenting": 1859,
      "ats": 1860,
      "Ġfinds": 1861,
      "Config": 1862,
      "ĠValues": 1863,
      "Yes": 1864,
      "ified": 1865,
      "vious": 1866,
      "sw": 1867,
      "Ġcontent": 1868,
      "man": 1869,
      "ering": 1870,
      "usage": 1871,
      "havior": 1872,
      "ĠWork": 1873,
      "ĠEn": 1874,
      "main": 1875,
      "Ġlegal": 1876,
      "hod": 1877,
      "weight": 1878,
      "Only": 1879,
      "arm": 1880,
      "sent": 1881,
      "Ġmonit": 1882,
      "Ġbeliefs": 1883,
      "ilar": 1884,
      "Ġidea": 1885,
      "Ġdid": 1886,
      "ĠEnt": 1887,
      "sa": 1888,
      "ock": 1889,
      "18": 1890,
      "imul": 1891,
      "ĠOllama": 1892,
      "ĠTemporal": 1893,
      "prompt": 1894,
      "Ġissu": 1895,
      "Ġpass": 1896,
      "ĠAdded": 1897,
      "Elaris": 1898,
      "igh": 1899,
      "Ġmachine": 1900,
      "GPT": 1901,
      "29": 1902,
      "Ġfeel": 1903,
      "alse": 1904,
      "ails": 1905,
      "Ġrequested": 1906,
      "ios": 1907,
      "Ġflow": 1908,
      "first": 1909,
      "Ġrouting": 1910,
      "Ġdescrib": 1911,
      "Ġmodules": 1912,
      "Ġrequ": 1913,
      "Ġmeans": 1914,
      "size": 1915,
      "outer": 1916,
      "Ġprinciple": 1917,
      "37": 1918,
      "Ġ]": 1919,
      "ĠSession": 1920,
      "activate": 1921,
      "Ġshe": 1922,
      "echanism": 1923,
      "Ġinformation": 1924,
      "07": 1925,
      "regex": 1926,
      "ety": 1927,
      "ered": 1928,
      "Ġappro": 1929,
      "Ġmessages": 1930,
      "Ġway": 1931,
      "ĠProfile": 1932,
      "'ve": 1933,
      "agement": 1934,
      "unctions": 1935,
      "ward": 1936,
      "ĠAr": 1937,
      "Ġprotocol": 1938,
      "Ġthink": 1939,
      "hical": 1940,
      "belief": 1941,
      "Ġadapt": 1942,
      "ted": 1943,
      "Ġbased": 1944,
      "ĠConsolidation": 1945,
      "Ġassociation": 1946,
      "ĠEND": 1947,
      "ellig": 1948,
      "Ġversion": 1949,
      "ĠExtracts": 1950,
      "feren": 1951,
      "ie": 1952,
      "ĠScores": 1953,
      "Ġengine": 1954,
      "ĠRef": 1955,
      "ember": 1956,
      "thoughts": 1957,
      "OR": 1958,
      "ĠNot": 1959,
      "99": 1960,
      "Ġremov": 1961,
      "?\\": 1962,
      "interest": 1963,
      "Ġautomation": 1964,
      "Ġdr": 1965,
      "Ġcorre": 1966,
      "Ġ.": 1967,
      "ubconscious": 1968,
      "ingle": 1969,
      "who": 1970,
      "ially": 1971,
      "Ġload": 1972,
      "Ġtrans": 1973,
      "ert": 1974,
      "Ġsay": 1975,
      "mechanism": 1976,
      "pos": 1977,
      "onesty": 1978,
      "epar": 1979,
      "Ġoper": 1980,
      "Ġsuggests": 1981,
      "Ġ2021": 1982,
      "updated": 1983,
      "Ġturns": 1984,
      "ves": 1985,
      "ĠRun": 1986,
      "ff": 1987,
      "Ġwor": 1988,
      "Ġhad": 1989,
      "eddit": 1990,
      "Ġoff": 1991,
      "afety": 1992,
      "ntool": 1993,
      "ob": 1994,
      ":::\\": 1995,
      "nOnly": 1996,
      "Ġfil": 1997,
      "It": 1998,
      "links": 1999,
      "related": 2000,
      "rust": 2001,
      "Ġcur": 2002,
      "Ġpeople": 2003,
      "22": 2004,
      "naction": 2005,
      "ense": 2006,
      "ĠThey": 2007,
      "ľâĶĢâĶĢ": 2008,
      "ices": 2009,
      "nparam": 2010,
      "ĠRegex": 2011,
      "ordan": 2012,
      "ollama": 2013,
      "Ġadvanced": 2014,
      "ĠPlan": 2015,
      "alk": 2016,
      "Ġsees": 2017,
      "rop": 2018,
      "Ġtotal": 2019,
      "ather": 2020,
      "arah": 2021,
      "Ġboth": 2022,
      "Ġsimilar": 2023,
      "plic": 2024,
      "Ġyearly": 2025,
      "ĠHow": 2026,
      "ĠclassName": 2027,
      "ue": 2028,
      "Ġaction": 2029,
      "ĠCl": 2030,
      "ush": 2031,
      "ody": 2032,
      "Ġevents": 2033,
      "Ġmulti": 2034,
      "Ġdown": 2035,
      "anges": 2036,
      "init": 2037,
      "reat": 2038,
      "Ġseconds": 2039,
      "Ġcr": 2040,
      "Ġmost": 2041,
      "\"]": 2042,
      "Ġdatas": 2043,
      "ging": 2044,
      "respon": 2045,
      "Ġhard": 2046,
      "ft": 2047,
      "Ġgu": 2048,
      "Ġfund": 2049,
      "format": 2050,
      "wr": 2051,
      "Ġ>": 2052,
      "access": 2053,
      "ĠNone": 2054,
      "Ġdeeper": 2055,
      "RO": 2056,
      "ĠReddit": 2057,
      "IP": 2058,
      "Ġens": 2059,
      "status": 2060,
      "âľħ": 2061,
      "Ġprodu": 2062,
      "Ġdatabase": 2063,
      "ner": 2064,
      "istically": 2065,
      "Ġtype": 2066,
      "Ġactual": 2067,
      ")**": 2068,
      "Ġinstead": 2069,
      "Ġquest": 2070,
      "Ġcognitive": 2071,
      "Ġind": 2072,
      "ĠLog": 2073,
      "Your": 2074,
      "</": 2075,
      "Ġchanges": 2076,
      "ĠCre": 2077,
      "roll": 2078,
      "air": 2079,
      "[\"": 2080,
      "lat": 2081,
      "Ġdocumenting": 2082,
      "ey": 2083,
      "300": 2084,
      "htt": 2085,
      "CT": 2086,
      "Ġterm": 2087,
      "Ġsmall": 2088,
      "Ġdomain": 2089,
      "ception": 2090,
      "ernal": 2091,
      "ĠModel": 2092,
      "Ġlayer": 2093,
      "Ġmis": 2094,
      "Ġtruth": 2095,
      "ublic": 2096,
      "Ġfrontend": 2097,
      "Execut": 2098,
      "My": 2099,
      "Ġ[]": 2100,
      "otent": 2101,
      "ferences": 2102,
      "Ġvar": 2103,
      "ved": 2104,
      "ches": 2105,
      "date": 2106,
      "ĠChat": 2107,
      "ĠUp": 2108,
      "acy": 2109,
      "Ġattention": 2110,
      "ðŁĳ": 2111,
      "Ġgood": 2112,
      "ashboard": 2113,
      "SH": 2114,
      "documenting": 2115,
      "uring": 2116,
      "Ġstructured": 2117,
      "iggers": 2118,
      "Ġexample": 2119,
      "Ġresearch": 2120,
      "ociative": 2121,
      "nW": 2122,
      "ug": 2123,
      "Ġsource": 2124,
      "Ġacqu": 2125,
      "iron": 2126,
      "Ġenv": 2127,
      "Ġbackend": 2128,
      "umb": 2129,
      "iable": 2130,
      "Ġcomput": 2131,
      "Ġmonitor": 2132,
      "Ġmethod": 2133,
      "Ġsa": 2134,
      "Ġsepar": 2135,
      "ime": 2136,
      "hours": 2137,
      "Ġvis": 2138,
      "Ġob": 2139,
      "Ġscore": 2140,
      "13": 2141,
      "Ġbeen": 2142,
      "MAP": 2143,
      "indow": 2144,
      "ĠMemory": 2145,
      "no": 2146,
      "ĠOn": 2147,
      "Ġhits": 2148,
      ")}": 2149,
      "ĠAssociative": 2150,
      "ĠâĨ": 2151,
      "Thread": 2152,
      "Ġcol": 2153,
      "hilosophical": 2154,
      "Ġserver": 2155,
      "birthday": 2156,
      "Ġ</": 2157,
      "alex": 2158,
      "Ġsuch": 2159,
      "des": 2160,
      "Ġfield": 2161,
      "rior": 2162,
      "Ġ--": 2163,
      "lection": 2164,
      "onitoring": 2165,
      "response": 2166,
      "fact": 2167,
      "03": 2168,
      "onth": 2169,
      "Ġcategories": 2170,
      "ĠOpen": 2171,
      "loop": 2172,
      "texting": 2173,
      "oud": 2174,
      "ET": 2175,
      "event": 2176,
      "eb": 2177,
      "Ġfunctions": 2178,
      "set": 2179,
      "09": 2180,
      "User": 2181,
      "ĠRealistically": 2182,
      "680": 2183,
      "cation": 2184,
      "Ġloops": 2185,
      "ailable": 2186,
      "ðŁĳī": 2187,
      "bar": 2188,
      "Ġsingle": 2189,
      "ĠEntry": 2190,
      "ms": 2191,
      "elligence": 2192,
      "by": 2193,
      "Ġver": 2194,
      "Ġheaders": 2195,
      "Ġprovid": 2196,
      "instruct": 2197,
      "like": 2198,
      "ĠDeveloper": 2199,
      "aintance": 2200,
      "jordan": 2201,
      "Ġ5680": 2202,
      "you": 2203,
      "LI": 2204,
      "utility": 2205,
      "ems": 2206,
      "ined": 2207,
      "Ġwhy": 2208,
      "Ġphilosophical": 2209,
      "ĠUse": 2210,
      "Ġprints": 2211,
      "how": 2212,
      "Ġknowledge": 2213,
      "ks": 2214,
      "Executing": 2215,
      "Ġthreading": 2216,
      "Ġfolder": 2217,
      "QL": 2218,
      "512": 2219,
      "ĠHere": 2220,
      "Ġtrue": 2221,
      "monitoring": 2222,
      "ache": 2223,
      "life": 2224,
      "ĠBut": 2225,
      "Ġef": 2226,
      "Ġmatch": 2227,
      "Ġexper": 2228,
      "Ġdream": 2229,
      "Re": 2230,
      "dict": 2231,
      "levant": 2232,
      "ĠREADME": 2233,
      "Ġacquaintance": 2234,
      "Ġbackground": 2235,
      "Ġsend": 2236,
      "ĠLife": 2237,
      "Ġmetadata": 2238,
      "tun": 2239,
      "Ġstatus": 2240,
      "Ġfast": 2241,
      "Ġneeds": 2242,
      "Ġansw": 2243,
      "flict": 2244,
      "with": 2245,
      "Ġregist": 2246,
      "ĠĠĠĠĠĠĠĠĊ": 2247,
      "Ġfine": 2248,
      "('": 2249,
      "Ġthose": 2250,
      "Ġrunning": 2251,
      "quence": 2252,
      "Ġhello": 2253,
      "Ġdocs": 2254,
      "ways": 2255,
      "Ġ=>": 2256,
      "ĠForm": 2257,
      "Ġsomeone": 2258,
      "mark": 2259,
      "Why": 2260,
      "Ġmakes": 2261,
      ".\\\"": 2262,
      "comple": 2263,
      "ained": 2264,
      "lete": 2265,
      "ience": 2266,
      "Ġtrack": 2267,
      "Ġmarked": 2268,
      "ollow": 2269,
      "Ġdatasets": 2270,
      "Ġchange": 2271,
      "bash": 2272,
      "orm": 2273,
      "ĠðŁ§": 2274,
      "Ġte": 2275,
      "ST": 2276,
      "255": 2277,
      "Ġminim": 2278,
      "events": 2279,
      "Ġgets": 2280,
      "ration": 2281,
      "ĠBirthday": 2282,
      "iting": 2283,
      "Here": 2284,
      "abel": 2285,
      "28": 2286,
      "Ġdeprecated": 2287,
      "================================": 2288,
      "otion": 2289,
      "ification": 2290,
      "Ġalignment": 2291,
      "Ġstring": 2292,
      "Ġunderstanding": 2293,
      "sc": 2294,
      "Ġagain": 2295,
      "\">": 2296,
      "ĠEach": 2297,
      "source": 2298,
      "ĠIdentity": 2299,
      "ĠðŁĶ": 2300,
      "Ġremoving": 2301,
      "ament": 2302,
      "Ġconf": 2303,
      "Ġexport": 2304,
      "Ġtexts": 2305,
      "Ġbehavior": 2306,
      "angu": 2307,
      "Ġembedd": 2308,
      "16": 2309,
      "instructions": 2310,
      "ures": 2311,
      "ER": 2312,
      "line": 2313,
      "Ġhuman": 2314,
      "wo": 2315,
      "Ġcohe": 2316,
      "Ġcho": 2317,
      "Ġexisting": 2318,
      "latency": 2319,
      "Ġfocus": 2320,
      "Ġcontinu": 2321,
      "cript": 2322,
      "fic": 2323,
      "ax": 2324,
      "isions": 2325,
      "Ġview": 2326,
      "ĠOption": 2327,
      "Ġdescribes": 2328,
      "Ġcorrect": 2329,
      "Ġfound": 2330,
      "Ġmap": 2331,
      "Ġdevelop": 2332,
      "'m": 2333,
      "met": 2334,
      "emon": 2335,
      "nical": 2336,
      "Ġanalyzing": 2337,
      "previous": 2338,
      "223": 2339,
      "GI": 2340,
      "Ġvalid": 2341,
      "Ġatt": 2342,
      "protocol": 2343,
      "Ġlets": 2344,
      "41": 2345,
      "itch": 2346,
      "ords": 2347,
      "####": 2348,
      "nA": 2349,
      "Ġ380": 2350,
      "iled": 2351,
      "eval": 2352,
      "ower": 2353,
      "ĠWIP": 2354,
      "ĠSystem": 2355,
      "Ġshows": 2356,
      "sam": 2357,
      "arent": 2358,
      "Ġthought": 2359,
      "result": 2360,
      "anguage": 2361,
      "Ġ2300": 2362,
      "Ġgrouped": 2363,
      "iosity": 2364,
      "âĢł": 2365,
      "tok": 2366,
      "Ġdesired": 2367,
      "deprecated": 2368,
      "node": 2369,
      "Ġmaint": 2370,
      "ational": 2371,
      "medi": 2372,
      "facts": 2373,
      "ĠIMAP": 2374,
      "Ġhandle": 2375,
      "vent": 2376,
      "Ġfundament": 2377,
      "Ġcost": 2378,
      "ĠRanges": 2379,
      "25519": 2380,
      "Ġtop": 2381,
      "eep": 2382,
      "Ġsupport": 2383,
      "ĠBack": 2384,
      "plans": 2385,
      "ironment": 2386,
      "ases": 2387,
      "command": 2388,
      "To": 2389,
      "Ġunderstand": 2390,
      "Ġweights": 2391,
      "Ġready": 2392,
      "^^^^^^^^": 2393,
      "Ġcal": 2394,
      "ĠSSH": 2395,
      "Ġaccessors": 2396,
      "wip": 2397,
      "Ġinit": 2398,
      "ĠNow": 2399,
      "ĠDB": 2400,
      "chestr": 2401,
      "term": 2402,
      "AR": 2403,
      "idd": 2404,
      "âĶĢâĶ": 2405,
      "abled": 2406,
      "tle": 2407,
      "accessors": 2408,
      "ĠGitHub": 2409,
      "Ġerror": 2410,
      "Ġdirectory": 2411,
      "ĠOr": 2412,
      "fee": 2413,
      "ĠReflex": 2414,
      "xity": 2415,
      "Ġexternal": 2416,
      ".*": 2417,
      "offee": 2418,
      "ections": 2419,
      "Ġspace": 2420,
      "Ġpost": 2421,
      "ï¸": 2422,
      "Ġlat": 2423,
      "ï¸ı": 2424,
      "ibility": 2425,
      "Ġexactly": 2426,
      "ynam": 2427,
      "etch": 2428,
      ".)": 2429,
      "Ġrel": 2430,
      "Ġexists": 2431,
      "ailed": 2432,
      "Ġpurpose": 2433,
      "Ġher": 2434,
      "Ġcoll": 2435,
      "Ġwh": 2436,
      "Ġsur": 2437,
      "TT": 2438,
      "score": 2439,
      "sed": 2440,
      "atic": 2441,
      "Ġworld": 2442,
      "ĠState": 2443,
      "Ġresponses": 2444,
      "Ġbetter": 2445,
      "Ġruns": 2446,
      "Ġ~/.": 2447,
      "Ġdist": 2448,
      "Ġmode": 2449,
      "co": 2450,
      "ĠApple": 2451,
      "Ġlives": 2452,
      "https": 2453,
      "Ġlast": 2454,
      "Ġafter": 2455,
      "Ġrequire": 2456,
      "ĠDo": 2457,
      "site": 2458,
      "place": 2459,
      "ãĢĳ": 2460,
      "understanding": 2461,
      "ãĢĲ": 2462,
      "ai": 2463,
      "ini": 2464,
      "Ġbeing": 2465,
      "Ġ12": 2466,
      "gpt": 2467,
      "atform": 2468,
      "Ġenough": 2469,
      "Configure": 2470,
      "Ġcount": 2471,
      "Ġhappens": 2472,
      "sid": 2473,
      "ĠCore": 2474,
      "Core": 2475,
      "Al": 2476,
      "other": 2477,
      "Ġbecom": 2478,
      "Ġrepo": 2479,
      "Ġfuture": 2480,
      "Ġallow": 2481,
      "?\"": 2482,
      "arget": 2483,
      "Ġinclud": 2484,
      "ID": 2485,
      "Ġprior": 2486,
      "istic": 2487,
      "Ġmatters": 2488,
      "Ġfeatures": 2489,
      "SS": 2490,
      "tx": 2491,
      "Ġfollow": 2492,
      "Ġsafety": 2493,
      "ĠAligned": 2494,
      "lib": 2495,
      "Ġlik": 2496,
      "Ġsubconscious": 2497,
      "unch": 2498,
      "aking": 2499,
      "ality": 2500,
      "IT": 2501,
      "Ġ11": 2502,
      "imuli": 2503,
      "Ġ(`": 2504,
      "Com": 2505,
      "Ġprot": 2506,
      "ithub": 2507,
      "Ġawait": 2508,
      "Ġrow": 2509,
      "reshold": 2510,
      "Ġused": 2511,
      "Ġfin": 2512,
      "Ġinstall": 2513,
      "Ġdepend": 2514,
      "nNow": 2515,
      "udget": 2516,
      "Ġconsolidation": 2517,
      "ĠArchitecture": 2518,
      "Ġmodular": 2519,
      "press": 2520,
      "Ġ{\"": 2521,
      "|----": 2522,
      "Ġstand": 2523,
      "2013": 2524,
      "db": 2525,
      "ĠFr": 2526,
      "ĠProgram": 2527,
      "conn": 2528,
      "Ġsimple": 2529,
      "/`": 2530,
      "her": 2531,
      "opy": 2532,
      "ish": 2533,
      "inter": 2534,
      "Ġtrust": 2535,
      "ger": 2536,
      "Ġupdates": 2537,
      "imported": 2538,
      "uto": 2539,
      "Ġintelligence": 2540,
      "Ġdocumentation": 2541,
      "ĠSe": 2542,
      "Ġ137": 2543,
      "ĠGo": 2544,
      "Ġcontr": 2545,
      "ĠAnd": 2546,
      "red": 2547,
      "tings": 2548,
      "ince": 2549,
      "Ġ2026": 2550,
      "class": 2551,
      "ged": 2552,
      "Ġwindow": 2553,
      "Ġdefault": 2554,
      "rowser": 2555,
      "Ġresults": 2556,
      "Ġcompon": 2557,
      "rospection": 2558,
      "what": 2559,
      "2239": 2560,
      "Ġ137512": 2561,
      "tt": 2562,
      "content": 2563,
      "Ġapproach": 2564,
      "Ġroot": 2565,
      "ĠBe": 2566,
      "Ġdirectly": 2567,
      "ĠSQL": 2568,
      "Ġentire": 2569,
      "cle": 2570,
      "Ġinterest": 2571,
      "Identity": 2572,
      "OT": 2573,
      "OST": 2574,
      "Tr": 2575,
      "Ġnam": 2576,
      "Ġrelevant": 2577,
      "atically": 2578,
      "turn": 2579,
      "Ġproper": 2580,
      "king": 2581,
      "ook": 2582,
      "ĠĠĠĠĠĠĠĠĠĠĠĠĠĠĠĠĠĠĠĠĠĠĠ": 2583,
      "cert": 2584,
      "Ġpull": 2585,
      "TTP": 2586,
      ".\"\"\"": 2587,
      "cont": 2588,
      "program": 2589,
      "Ġsk": 2590,
      "Ġmay": 2591,
      "Ġavailable": 2592,
      "):\\": 2593,
      "ange": 2594,
      "message": 2595,
      "Ġmain": 2596,
      "orker": 2597,
      "cial": 2598,
      "']": 2599,
      "txt": 2600,
      "Ġsy": 2601,
      "Ġcompress": 2602,
      "abor": 2603,
      "Ġagents": 2604,
      "rror": 2605,
      "apple": 2606,
      "flow": 2607,
      "PU": 2608,
      "ecially": 2609,
      "ope": 2610,
      "Cl": 2611,
      "ĠĠĠĠĠĠĠĠĠĠ": 2612,
      "ling": 2613,
      "Ġpublic": 2614,
      "API": 2615,
      "oworker": 2616,
      "Ġprogram": 2617,
      "When": 2618,
      "mb": 2619,
      "Ġexcept": 2620,
      "Ġ?": 2621,
      "developer": 2622,
      "empl": 2623,
      "task": 2624,
      "ons": 2625,
      "ĠCont": 2626,
      "Ġoptim": 2627,
      "(\\\"": 2628,
      "gan": 2629,
      "Ġru": 2630,
      "Ġbecomes": 2631,
      "So": 2632,
      "Ġintent": 2633,
      "web": 2634,
      "aude": 2635,
      "ĠContext": 2636,
      "ann": 2637,
      "Ġtwo": 2638,
      "Ġpush": 2639,
      "sequence": 2640,
      "Ġtrigger": 2641,
      "embers": 2642,
      "Ġoften": 2643,
      "ared": 2644,
      "Ch": 2645,
      "Ġdev": 2646,
      "cription": 2647,
      "Ġenvironment": 2648,
      "do": 2649,
      "04": 2650,
      "lot": 2651,
      "Ġwrong": 2652,
      "especially": 2653,
      "chema": 2654,
      "Ġbl": 2655,
      "ION": 2656,
      "Per": 2657,
      "Ġlimit": 2658,
      "Ġ)": 2659,
      "Ġmove": 2660,
      "cod": 2661,
      "Ġinference": 2662,
      "input": 2663,
      "ources": 2664,
      "Ġitself": 2665,
      "write": 2666,
      "loy": 2667,
      "attern": 2668,
      "Ġupdated": 2669,
      "Ġtests": 2670,
      "ĠTest": 2671,
      "inciples": 2672,
      "aim": 2673,
      "ek": 2674,
      "Ġcomplete": 2675,
      "rsa": 2676,
      "'d": 2677,
      "Ġenroll": 2678,
      "Ġreflect": 2679,
      "aff": 2680,
      "Ġtasks": 2681,
      "Ġtimestamp": 2682,
      "requ": 2683,
      "Ġimplementation": 2684,
      "idence": 2685,
      "State": 2686,
      "Ġperfect": 2687,
      "style": 2688,
      "sight": 2689,
      "Ġperform": 2690,
      "Ġissue": 2691,
      "rors": 2692,
      "Ġprompts": 2693,
      "Ġbas": 2694,
      "config": 2695,
      "Ġwere": 2696,
      "list": 2697,
      "Ġturn": 2698,
      "alle": 2699,
      "build": 2700,
      "pack": 2701,
      "fo": 2702,
      "span": 2703,
      "ving": 2704,
      "Ġalways": 2705,
      "Ġquick": 2706,
      ",\\": 2707,
      "ently": 2708,
      "udit": 2709,
      "go": 2710,
      "Ġinstruct": 2711,
      "aunch": 2712,
      "just": 2713,
      "append": 2714,
      "check": 2715,
      "lob": 2716,
      "Ġmean": 2717,
      "Ġreturns": 2718,
      "Ġquestion": 2719,
      "Ġyet": 2720,
      "`.": 2721,
      "iter": 2722,
      "Ġstrong": 2723,
      "ĠRes": 2724,
      "31": 2725,
      "vices": 2726,
      "principles": 2727,
      "Ġretri": 2728,
      "lease": 2729,
      "Model": 2730,
      "Ġconstraints": 2731,
      "only": 2732,
      "ĠEvery": 2733,
      "We": 2734,
      "|----------------": 2735,
      "ĠâĶĶ": 2736,
      "Ġmonth": 2737,
      "Ġraw": 2738,
      "ĠBuild": 2739,
      "Ġmanagement": 2740,
      "ĠAct": 2741,
      "print": 2742,
      "Ġthing": 2743,
      "ĠReact": 2744,
      "Chat": 2745,
      "Ġrecur": 2746,
      "Ġ__": 2747,
      "icit": 2748,
      "indness": 2749,
      "play": 2750,
      "Ġpip": 2751,
      "*,": 2752,
      "OL": 2753,
      "ns": 2754,
      "ĠAGI": 2755,
      "avity": 2756,
      "ĠâĢĵ": 2757,
      "}\\": 2758,
      "48": 2759,
      "nLet": 2760,
      "Ġpersistent": 2761,
      "ately": 2762,
      "rem": 2763,
      "Ġlearns": 2764,
      "Ġintegration": 2765,
      "last": 2766,
      "ances": 2767,
      "olaris": 2768,
      "Ġexplicit": 2769,
      "iction": 2770,
      "cho": 2771,
      "\\\",\\": 2772,
      "Ġcommands": 2773,
      "Ġ...": 2774,
      "Loop": 2775,
      "Ġfail": 2776,
      "ĠWhy": 2777,
      "Ġauth": 2778,
      "Ġpack": 2779,
      "spect": 2780,
      "Ġgive": 2781,
      "ne": 2782,
      "Ġ14": 2783,
      "Int": 2784,
      "mail": 2785,
      "Ġcompan": 2786,
      "duction": 2787,
      "inux": 2788,
      "gether": 2789,
      "Ġcreated": 2790,
      "ecause": 2791,
      "['": 2792,
      "08": 2793,
      "iqu": 2794,
      "ĠCh": 2795,
      "Ġ524": 2796,
      "Ġespecially": 2797,
      "Ġadapter": 2798,
      "Ġorig": 2799,
      "Ġ`/": 2800,
      "patch": 2801,
      "ĠCade": 2802,
      "ognition": 2803,
      "ĠHTTP": 2804,
      "Ġhealth": 2805,
      "Ġdict": 2806,
      "ernel": 2807,
      "Want": 2808,
      "Ġcontribut": 2809,
      "Ġsuccess": 2810,
      "Ġprovide": 2811,
      "ĠCode": 2812,
      "Ġterminal": 2813,
      "Run": 2814,
      "Ġtell": 2815,
      "Ġclar": 2816,
      "55": 2817,
      "))": 2818,
      "can": 2819,
      "ĠĠĠĠĠĠĠĠĠĠĠĠĠĠĠĠĠ": 2820,
      "dis": 2821,
      "doc": 2822,
      "add": 2823,
      "ĠAny": 2824,
      "Ġhappen": 2825,
      "venv": 2826,
      "\\\")\\": 2827,
      "Ġusers": 2828,
      "Ġscale": 2829,
      "Ġcommun": 2830,
      "github": 2831,
      "Ġlogging": 2832,
      "Ġdecisions": 2833,
      "Ġtoo": 2834,
      "dec": 2835,
      "Ref": 2836,
      "rate": 2837,
      "irm": 2838,
      "ĠOptional": 2839,
      "cup": 2840,
      "ĠList": 2841,
      "251": 2842,
      "eting": 2843,
      "ĠRec": 2844,
      "otenti": 2845,
      "200": 2846,
      "ĠAt": 2847,
      "âĢĵ": 2848,
      "ending": 2849,
      "`)": 2850,
      "Ġtriggers": 2851,
      "Ġparamet": 2852,
      "Ġteam": 2853,
      "subconscious": 2854,
      "Ġassistant": 2855,
      "ĠĠĠĠĠĠĠĠĠĠĠĠ": 2856,
      "Ġinterface": 2857,
      "une": 2858,
      "iving": 2859,
      "cap": 2860,
      "tic": 2861,
      "ocal": 2862,
      "Ġanswer": 2863,
      "59": 2864,
      "Ġmust": 2865,
      "Ġ100": 2866,
      "ĠCLI": 2867,
      "ategy": 2868,
      "gress": 2869,
      "ĠAll": 2870,
      "But": 2871,
      "Ġresol": 2872,
      "emini": 2873,
      "Ġlive": 2874,
      "Ġdevelopment": 2875,
      "Ġcommand": 2876,
      "]:": 2877,
      "Ġment": 2878,
      "spec": 2879,
      "onom": 2880,
      "Ġnumb": 2881,
      "ĠCreate": 2882,
      "34": 2883,
      "ĠLLMs": 2884,
      "100": 2885,
      "2550": 2886,
      "Ġlanguage": 2887,
      "Ġspecial": 2888,
      "base": 2889,
      "uch": 2890,
      "current": 2891,
      "Ġtalk": 2892,
      "Ġsit": 2893,
      "ķĲâķĲâķĲâķĲâ": 2894,
      "map": 2895,
      "pty": 2896,
      "hys": 2897,
      "Ġreg": 2898,
      "affold": 2899,
      "itep": 2900,
      "cies": 2901,
      "Ġexecution": 2902,
      "Ġbeh": 2903,
      "ĠOut": 2904,
      "over": 2905,
      "orage": 2906,
      "Ġgot": 2907,
      "Ġbrain": 2908,
      "Ġendpoints": 2909,
      "Ġear": 2910,
      "Ġold": 2911,
      "ĠCan": 2912,
      "Ġdoing": 2913,
      "}\")": 2914,
      ".âĢĿ": 2915,
      "Read": 2916,
      "ian": 2917,
      "sec": 2918,
      "Ġmissing": 2919,
      "From": 2920,
      "Ġthings": 2921,
      "hase": 2922,
      "ĠâĶľâĶĢâĶĢ": 2923,
      "comp": 2924,
      "location": 2925,
      "ables": 2926,
      "Ġdeterm": 2927,
      "ilot": 2928,
      "Ġlow": 2929,
      "Ġplatform": 2930,
      "focus": 2931,
      "Res": 2932,
      "Not": 2933,
      "Ġsw": 2934,
      "Ġdidn": 2935,
      "Add": 2936,
      "me": 2937,
      "apping": 2938,
      "aft": 2939,
      "ĠOpenAI": 2940,
      "Ġrep": 2941,
      "':": 2942,
      "/{": 2943,
      "itle": 2944,
      "pri": 2945,
      "Ġshap": 2946,
      "Ġmov": 2947,
      "Ġconvo": 2948,
      "modules": 2949,
      "ges": 2950,
      "Ġlevels": 2951,
      "Ġperson": 2952,
      "Ġscores": 2953,
      "ĠUn": 2954,
      "},": 2955,
      "Ġinside": 2956,
      "Ġtogether": 2957,
      "Ġmultiple": 2958,
      "ista": 2959,
      ")`": 2960,
      "ride": 2961,
      "ĠDE": 2962,
      "Perfect": 2963,
      "ulate": 2964,
      "uff": 2965,
      "Ġnothing": 2966,
      "head": 2967,
      "Ġorchestr": 2968,
      "ĠâĢ¢": 2969,
      "Ġtrying": 2970,
      "encies": 2971,
      "pass": 2972,
      "Ġedit": 2973,
      "Ġoutputs": 2974,
      "error": 2975,
      "arison": 2976,
      "Ġgrowth": 2977,
      "Ġarchitect": 2978,
      "ptions": 2979,
      "regist": 2980,
      "ayer": 2981,
      "Ġjson": 2982,
      "imple": 2983,
      "](": 2984,
      "Ġemail": 2985,
      "shot": 2986,
      "lean": 2987,
      "Ġtemp": 2988,
      "ĠSh": 2989,
      "Ġvariable": 2990,
      "Ġcopy": 2991,
      "ĠSQLite": 2992,
      "And": 2993,
      "ress": 2994,
      "Ġsync": 2995,
      "itepaper": 2996,
      "Ġpriv": 2997,
      "Ġanything": 2998,
      "Ġdecision": 2999,
      "ighb": 3000,
      "amie": 3001,
      "Ġpaper": 3002,
      "Ġhold": 3003,
      "Ġtechnical": 3004,
      "ious": 3005,
      "Ġitems": 3006,
      "ĠRet": 3007,
      "local": 3008,
      "Ġve": 3009,
      "ension": 3010,
      "ĠSp": 3011,
      "39": 3012,
      "aemon": 3013,
      "isk": 3014,
      "Ġbody": 3015,
      "Ġchun": 3016,
      "force": 3017,
      "nowledge": 3018,
      "Ġmac": 3019,
      "cli": 3020,
      "Cre": 3021,
      "router": 3022,
      "Ġharm": 3023,
      "Ġ\"/": 3024,
      "antic": 3025,
      "OU": 3026,
      "udf": 3027,
      "Ġbase": 3028,
      "Ġconsequence": 3029,
      "opilot": 3030,
      "utions": 3031,
      "Ġstrength": 3032,
      "ĠChatGPT": 3033,
      "CP": 3034,
      "react": 3035,
      "Ġwrit": 3036,
      "ched": 3037,
      "hich": 3038,
      "Error": 3039,
      "let": 3040,
      "outing": 3041,
      "ONG": 3042,
      "ĠStep": 3043,
      "ĠBackend": 3044,
      "arge": 3045,
      "Ġselect": 3046,
      "ĠHE": 3047,
      "astructure": 3048,
      "Ġhandles": 3049,
      "frastructure": 3050,
      "Ġfilter": 3051,
      "Ġthreshold": 3052,
      "Ġmuch": 3053,
      "=\\\"": 3054,
      "Ġduring": 3055,
      "Ġsetup": 3056,
      "nap": 3057,
      "Ġstop": 3058,
      "Ġconsist": 3059,
      "ries": 3060,
      "Ġruntime": 3061,
      "âĶľâĶĢâĶĢ": 3062,
      "Ġprob": 3063,
      "nThis": 3064,
      "RA": 3065,
      "archical": 3066,
      "purpose": 3067,
      "ĠCheck": 3068,
      "ĠComp": 3069,
      "occur": 3070,
      "ins": 3071,
      "Ġlight": 3072,
      "ĠEv": 3073,
      "ĠDes": 3074,
      "loat": 3075,
      "Ġ\"\\": 3076,
      "Ġscaffold": 3077,
      "using": 3078,
      "olution": 3079,
      "ĠSome": 3080,
      "ML": 3081,
      "Ġlock": 3082,
      "etime": 3083,
      "ived": 3084,
      "ĠStr": 3085,
      "Ġrather": 3086,
      "Ġauto": 3087,
      "ĿĮ": 3088,
      "ĠJamie": 3089,
      "Ġsafe": 3090,
      "Ġpage": 3091,
      "Ġpower": 3092,
      "Ġstruct": 3093,
      "Ġdetails": 3094,
      "64": 3095,
      "]\\": 3096,
      "````": 3097,
      "Ġimmedi": 3098,
      "Ġeffect": 3099,
      "apter": 3100,
      "Ġword": 3101,
      "True": 3102,
      "LL": 3103,
      "mis": 3104,
      "alidation": 3105,
      "Ġpaths": 3106,
      "Ġsteps": 3107,
      "Ġconnection": 3108,
      "Ġissues": 3109,
      "ufe": 3110,
      "Ġnever": 3111,
      "Ġimprov": 3112,
      "Ġconflict": 3113,
      "âĢľ": 3114,
      "logy": 3115,
      "LO": 3116,
      "Ġstored": 3117,
      "Ġpast": 3118,
      "2514": 3119,
      "ugg": 3120,
      "ager": 3121,
      "tuning": 3122,
      "Ġassum": 3123,
      "izes": 3124,
      "Ġdesigned": 3125,
      "ynamic": 3126,
      "nI": 3127,
      "Ġbrowser": 3128,
      "ĠWorking": 3129,
      "ift": 3130,
      "nIf": 3131,
      "hed": 3132,
      "2020": 3133,
      "ral": 3134,
      "Ġremembers": 3135,
      "Ġrecent": 3136,
      "ĠGr": 3137,
      "oid": 3138,
      "Ġdrop": 3139,
      "Ġz": 3140,
      "ably": 3141,
      "dit": 3142,
      "?**": 3143,
      "Ġprimary": 3144,
      "Ġproblems": 3145,
      "espon": 3146,
      "AN": 3147,
      "eah": 3148,
      "ĠPath": 3149,
      "cupation": 3150,
      "Ġindex": 3151,
      "Ġhiking": 3152,
      "()\\": 3153,
      "Ġpay": 3154,
      "role": 3155,
      "Ġthree": 3156,
      "ĠðŁ§ł": 3157,
      "Ġclos": 3158,
      "Ġloc": 3159,
      "ighbor": 3160,
      "')": 3161,
      "Ġgoing": 3162,
      "Ġrece": 3163,
      "description": 3164,
      "br": 3165,
      "Ġpref": 3166,
      "box": 3167,
      "Ġrest": 3168,
      "napshot": 3169,
      "demo": 3170,
      "izing": 3171,
      "ĠStructure": 3172,
      "ĠJust": 3173,
      "min": 3174,
      "Ġlen": 3175,
      "Ġtake": 3176,
      "Ġgives": 3177,
      "Ġiter": 3178,
      "Ġ30": 3179,
      "Ġoption": 3180,
      "Ġremember": 3181,
      "Ġrespond": 3182,
      "Ġstandard": 3183,
      "rip": 3184,
      "Ġeas": 3185,
      "Ġchecks": 3186,
      "ication": 3187,
      "ended": 3188,
      "Ġpos": 3189,
      "safe": 3190,
      "otional": 3191,
      "Ġwithin": 3192,
      "ĠLinux": 3193,
      "Ġdelete": 3194,
      "Ġproduct": 3195,
      "js": 3196,
      "host": 3197,
      "Ġcoherence": 3198,
      "Ġautomatically": 3199,
      "bin": 3200,
      "ansp": 3201,
      "emplate": 3202,
      "Ġinitial": 3203,
      "ĠHEA": 3204,
      "):**": 3205,
      "ĠY": 3206,
      "Ġfall": 3207,
      "Ġwell": 3208,
      "Ġben": 3209,
      "gy": 3210,
      "annel": 3211,
      "mode": 3212,
      "potenti": 3213,
      "Ġexamples": 3214,
      "signal": 3215,
      "Ġtoday": 3216,
      "âĶĢâĶĢâĶĢâĶĢâĶĢâĶĢâĶĢâĶĢâĶĢâĶĢâĶĢâĶĢ": 3217,
      "45": 3218,
      "For": 3219,
      "solut": 3220,
      "`\\": 3221,
      "ĠSet": 3222,
      "ĠMan": 3223,
      "git": 3224,
      "Ġpol": 3225,
      "Ġ17": 3226,
      "Ġappear": 3227,
      "ĠPre": 3228,
      "Ġinsight": 3229,
      "ĠImplement": 3230,
      "ides": 3231,
      "ully": 3232,
      "Ġservice": 3233,
      "essions": 3234,
      "Ġfalse": 3235,
      "Ġengineer": 3236,
      "Ġmade": 3237,
      "ĠRep": 3238,
      "ĠDis": 3239,
      "Ġwhole": 3240,
      "Ġnola": 3241,
      "ĠKey": 3242,
      "depend": 3243,
      "lobal": 3244,
      "Ġinv": 3245,
      "hetic": 3246,
      "Ġprocessing": 3247,
      "Ġcolum": 3248,
      "ĠIs": 3249,
      "Ġ22": 3250,
      "Ġgrows": 3251,
      "Ġplace": 3252,
      "len": 3253,
      "ocument": 3254,
      "Ġdashboard": 3255,
      "ĠFast": 3256,
      "Ġcollabor": 3257,
      "Ġinstructions": 3258,
      "ĠmacOS": 3259,
      "ĠNov": 3260,
      "schema": 3261,
      "Ġtables": 3262,
      "Ġcosts": 3263,
      "Ġhier": 3264,
      "GET": 3265,
      "42": 3266,
      "preference": 3267,
      "Ġintrospection": 3268,
      "til": 3269,
      "solid": 3270,
      "Ġrole": 3271,
      "Message": 3272,
      "fin": 3273,
      "ĠNew": 3274,
      "Ġflag": 3275,
      "ĠâĿĮ": 3276,
      "esponse": 3277,
      "Ġ`.": 3278,
      "ctor": 3279,
      "Ġorgan": 3280,
      "ively": 3281,
      "Ġimports": 3282,
      "Ġmax": 3283,
      "itional": 3284,
      "IS": 3285,
      "Ġvisual": 3286,
      "():": 3287,
      "packages": 3288,
      "stats": 3289,
      "hether": 3290,
      "ĠException": 3291,
      "eeds": 3292,
      "AU": 3293,
      "etune": 3294,
      "Ġhome": 3295,
      "iment": 3296,
      "ENT": 3297,
      "Best": 3298,
      "Ġart": 3299,
      "dir": 3300,
      "attle": 3301,
      "Ġonce": 3302,
      "3011": 3303,
      "ocker": 3304,
      "Ġrules": 3305,
      "ĠGener": 3306,
      "Ġprotected": 3307,
      "MO": 3308,
      "ĠLoop": 3309,
      "Ġreview": 3310,
      "oad": 3311,
      "Ġreally": 3312,
      "button": 3313,
      "Ġdescription": 3314,
      "iddle": 3315,
      "Ġdone": 3316,
      "ĠGet": 3317,
      "your": 3318,
      "ored": 3319,
      "Ġsoft": 3320,
      "Ġident": 3321,
      "\\\"\\\"\\": 3322,
      "Ġlayers": 3323,
      "Ġ{\\": 3324,
      "Ġsolutions": 3325,
      "Ġtyp": 3326,
      "Ġfinal": 3327,
      "Ġcreates": 3328,
      "uilt": 3329,
      "Ġagainst": 3330,
      "ĠID": 3331,
      "Ġmeta": 3332,
      "ric": 3333,
      "FI": 3334,
      "Im": 3335,
      "bian": 3336,
      "word": 3337,
      "Ġmech": 3338,
      "ĠAd": 3339,
      "Ġseed": 3340,
      "udde": 3341,
      "Ġclaim": 3342,
      "tions": 3343,
      "util": 3344,
      "Ġnat": 3345,
      "occupation": 3346,
      "Ġempty": 3347,
      "Ġshi": 3348,
      "Ġseparate": 3349,
      "potentiated": 3350,
      "inst": 3351,
      "Ġweak": 3352,
      "Ġassess": 3353,
      "Ġ```": 3354,
      "Ġground": 3355,
      "Ġmom": 3356,
      "Ġchar": 3357,
      "docs": 3358,
      "LLM": 3359,
      "der": 3360,
      "Ġexplan": 3361,
      "Ġfundamental": 3362,
      "nS": 3363,
      "Ġobject": 3364,
      "px": 3365,
      "iness": 3366,
      "ĠĠĠĠĠĠĠĠĠĠĠĠĠĠĠĠĠĠĠĠĠ": 3367,
      "Ġlater": 3368,
      "eel": 3369,
      "Ġstay": 3370,
      "ĠSo": 3371,
      "ott": 3372,
      "Ġ50": 3373,
      "Ġtimes": 3374,
      "Ġstorage": 3375,
      "ĠAuto": 3376,
      "Ġpipeline": 3377,
      "ĠCol": 3378,
      "query": 3379,
      "nThat": 3380,
      "ļ¡": 3381,
      "Ġres": 3382,
      "specific": 3383,
      "}/": 3384,
      "izer": 3385,
      "Ġroute": 3386,
      "Ġverify": 3387,
      "Up": 3388,
      "GitHub": 3389,
      "rock": 3390,
      "ĠIN": 3391,
      "elt": 3392,
      "Ġfeature": 3393,
      "backend": 3394,
      "CE": 3395,
      "tasks": 3396,
      "44": 3397,
      "total": 3398,
      "essages": 3399,
      "Module": 3400,
      "Ġextraction": 3401,
      "lose": 3402,
      "Ġmarket": 3403,
      "ml": 3404,
      "Ġphys": 3405,
      "Ġdeploy": 3406,
      "685": 3407,
      "sy": 3408,
      "Ġanch": 3409,
      "Ġlooks": 3410,
      "ebbian": 3411,
      "barista": 3412,
      "cing": 3413,
      "Ġnear": 3414,
      "ormal": 3415,
      "Ġfew": 3416,
      "ssible": 3417,
      "edrock": 3418,
      "ĠðŁĮ": 3419,
      "uv": 3420,
      "relevance": 3421,
      "Ġmeas": 3422,
      "grap": 3423,
      "ĠâĨĵ": 3424,
      "ĠSimple": 3425,
      "---|": 3426,
      "ĠLONG": 3427,
      "(),": 3428,
      "ĠSelf": 3429,
      "Ġport": 3430,
      "Ġsign": 3431,
      "Ġbudget": 3432,
      "fully": 3433,
      "Ġensures": 3434,
      "output": 3435,
      "Ġbecome": 3436,
      "ĠDict": 3437,
      "token": 3438,
      "ãĢĳ.": 3439,
      "Ġsav": 3440,
      "Ġ],": 3441,
      "ither": 3442,
      "Ġrestart": 3443,
      "light": 3444,
      "emble": 3445,
      "ĠSc": 3446,
      "ainty": 3447,
      "Ġconnect": 3448,
      "36": 3449,
      "Open": 3450,
      "aise": 3451,
      "Ġside": 3452,
      "Ġerrors": 3453,
      "ĠMCP": 3454,
      "ĠMet": 3455,
      "Ġcloud": 3456,
      "Ġwon": 3457,
      "ĠTrue": 3458,
      "irection": 3459,
      "hes": 3460,
      "ote": 3461,
      "aries": 3462,
      "ĠClaude": 3463,
      "\\\\": 3464,
      "resol": 3465,
      "default": 3466,
      "ique": 3467,
      "Ġnumber": 3468,
      "EXT": 3469,
      "rives": 3470,
      "Ġ:": 3471,
      "Ġ(\"": 3472,
      "ĠInst": 3473,
      "Ġaudit": 3474,
      "ORT": 3475,
      "Ġminimal": 3476,
      "arg": 3477,
      "Ġfetch": 3478,
      "ĠLinking": 3479,
      "Ġemer": 3480,
      "Ġmath": 3481,
      "().": 3482,
      "Ġaround": 3483,
      "iver": 3484,
      "ivers": 3485,
      "val": 3486,
      "ential": 3487,
      "Ġsitu": 3488,
      "occurrence": 3489,
      "DI": 3490,
      "Ġcare": 3491,
      "ĠIDE": 3492,
      "Ġsched": 3493,
      "ned": 3494,
      "Ġyourself": 3495,
      "harm": 3496,
      "Ġ{}": 3497,
      ".**\\": 3498,
      "table": 3499,
      "erpr": 3500,
      "curiosity": 3501,
      "nable": 3502,
      "alf": 3503,
      "Ġduration": 3504,
      "wen": 3505,
      "ret": 3506,
      "Ġ[\"": 3507,
      "Ġentry": 3508,
      "Can": 3509,
      "Ġdifference": 3510,
      "structure": 3511,
      "actly": 3512,
      "Ġrouter": 3513,
      "neighbor": 3514,
      "File": 3515,
      "files": 3516,
      "Ġtarget": 3517,
      "ĠLear": 3518,
      "honesty": 3519,
      "Ġmaking": 3520,
      "Ġensure": 3521,
      "Ġalign": 3522,
      "Ġsince": 3523,
      "ĠRA": 3524,
      "35": 3525,
      "sarah": 3526,
      "ĠMint": 3527,
      "metadata": 3528,
      "Ġos": 3529,
      "ĠUpdate": 3530,
      "Ġcomponents": 3531,
      "ĠSomeone": 3532,
      "atabase": 3533,
      "certainty": 3534,
      "ait": 3535,
      "ped": 3536,
      "Ġnu": 3537,
      "ences": 3538,
      "actor": 3539,
      "Ġarch": 3540,
      "Ġgoal": 3541,
      "Ġincludes": 3542,
      "det": 3543,
      "ROM": 3544,
      "MP": 3545,
      "-|": 3546,
      "Ġincre": 3547,
      "passed": 3548,
      "Based": 3549,
      "ĠX": 3550,
      "ank": 3551,
      "Memory": 3552,
      "generate": 3553,
      "\"],": 3554,
      "ĠStart": 3555,
      "itical": 3556,
      "ulation": 3557,
      "oft": 3558,
      "Ġmeaning": 3559,
      "ugging": 3560,
      "Ġmem": 3561,
      "riven": 3562,
      "Each": 3563,
      "Ġbro": 3564,
      "Ġhav": 3565,
      "âĶĢâĶĢâĶĢâĶĢâĶĢâĶĢâĶĢâĶĢâĶĢâĶĢâĶĢâĶĢâĶĢâĶĢâĶĢâĶĢâĶĢâĶĢâĶĢâĶĢâĶĢâĶĢâĶĢâĶĢâĶĢâĶĢâĶĢâĶĢâĶĢâĶĢâĶĢâĶĢâĶĢâĶĢâĶĢâĶĢâĶĢâĶĢâĶĢâĶĢâĶĢâĶĢâĶĢâĶĢâĶĢâĶĢâĶĢâĶĢ": 3566,
      "Ġacc": 3567,
      ".\\\"\\": 3568,
      "Ġhonesty": 3569,
      "Ġpredict": 3570,
      "reduction": 3571,
      "ĠðŁĵ": 3572,
      "RL": 3573,
      "aps": 3574,
      "ĠBo": 3575,
      "etwork": 3576,
      "Ġagre": 3577,
      "used": 3578,
      "Ġconc": 3579,
      "off": 3580,
      "odes": 3581,
      "hoto": 3582,
      "index": 3583,
      "Ġmoment": 3584,
      "Ġmind": 3585,
      "url": 3586,
      "47": 3587,
      "Ġaren": 3588,
      "UI": 3589,
      "Ġuntil": 3590,
      "sor": 3591,
      "anch": 3592,
      "tokens": 3593,
      "Ġwrapp": 3594,
      "Ġrelated": 3595,
      "Ġbest": 3596,
      "come": 3597,
      "Ġquestions": 3598,
      "Ġlikely": 3599,
      "Ġpython": 3600,
      "Ġgre": 3601,
      "ainer": 3602,
      "Ġevalu": 3603,
      "Ġinject": 3604,
      "Ġlaunch": 3605,
      "flu": 3606,
      "erprise": 3607,
      "250": 3608,
      "Ad": 3609,
      "Ġmir": 3610,
      "Ġarg": 3611,
      "server": 3612,
      "Ġknows": 3613,
      "exist": 3614,
      "Ġhit": 3615,
      "ĠIDEs": 3616,
      "Agent": 3617,
      "Fr": 3618,
      "Ġdetail": 3619,
      "Ġsave": 3620,
      "Ġhtt": 3621,
      "Ġtesting": 3622,
      "Ġ&&": 3623,
      "uly": 3624,
      "Ġclarity": 3625,
      "has": 3626,
      "irl": 3627,
      "ĠTask": 3628,
      "ĠExecute": 3629,
      "body": 3630,
      "Ġemp": 3631,
      "Ġthinking": 3632,
      "Ġ200": 3633,
      "Ġwhitepaper": 3634,
      "Ġshowing": 3635,
      "Ġlooking": 3636,
      "Ġconv": 3637,
      "Ġfields": 3638,
      "Ġll": 3639,
      "ĠFull": 3640,
      "ĠExample": 3641,
      "Ġoperations": 3642,
      "ĠâĶĶâĶĢâĶĢ": 3643,
      "ĠHigh": 3644,
      "--------------------------------": 3645,
      "Ġviews": 3646,
      "Ġsays": 3647,
      "elete": 3648,
      "plication": 3649,
      "An": 3650,
      "step": 3651,
      "architecture": 3652,
      "illing": 3653,
      "Ġdeb": 3654,
      "service": 3655,
      "Ġsolution": 3656,
      "ĠApp": 3657,
      "coworker": 3658,
      "messages": 3659,
      "urally": 3660,
      "ĠWant": 3661,
      "Ġbutton": 3662,
      "Ġmany": 3663,
      "ficult": 3664,
      "nder": 3665,
      "Ġscan": 3666,
      "ĠThese": 3667,
      "Ġmonths": 3668,
      "Ġkeeps": 3669,
      "anel": 3670,
      "Ġdatetime": 3671,
      "Ġpersistence": 3672,
      "Ġwalk": 3673,
      "âĶĶ": 3674,
      "urity": 3675,
      "ING": 3676,
      "Ġrequires": 3677,
      "40": 3678,
      "iny": 3679,
      "chmark": 3680,
      "Ġtruthful": 3681,
      "ĠAttention": 3682,
      "gage": 3683,
      "Ġreference": 3684,
      "label": 3685,
      "Ġfully": 3686,
      "thers": 3687,
      "ĠPar": 3688,
      "Ġgoals": 3689,
      "Ġcomplex": 3690,
      "Ġperformance": 3691,
      "TH": 3692,
      "Ġarchitectural": 3693,
      "Ġaligned": 3694,
      "ler": 3695,
      "({": 3696,
      "Ġack": 3697,
      "ogle": 3698,
      "Ġembedding": 3699,
      "graphy": 3700,
      "bot": 3701,
      "Ġclient": 3702,
      "Ġstimuli": 3703,
      "Ġfeedback": 3704,
      "Ġtoward": 3705,
      "forced": 3706,
      "inistic": 3707,
      "Ġ`_": 3708,
      "ĠGemini": 3709,
      "Ġcase": 3710,
      "acing": 3711,
      "Ġminut": 3712,
      "Ġvalidation": 3713,
      "posing": 3714,
      "Ġinterested": 3715,
      "usion": 3716,
      "Ġautonom": 3717,
      "Ġmechanism": 3718,
      "ume": 3719,
      "solutely": 3720,
      "Ġwatch": 3721,
      "Ġ(/": 3722,
      "avg": 3723,
      "iew": 3724,
      "ĠShow": 3725,
      "ceed": 3726,
      "ĠNext": 3727,
      "results": 3728,
      "ements": 3729,
      "open": 3730,
      "Ġequ": 3731,
      "ĠTEXT": 3732,
      "energy": 3733,
      "ĠVS": 3734,
      "Ġstarts": 3735,
      "Ġsessions": 3736,
      "ĠCopilot": 3737,
      "Ġinterpre": 3738,
      "Ġminimize": 3739,
      "Ġnames": 3740,
      "32": 3741,
      "Ġfree": 3742,
      "ĠMat": 3743,
      "Ġinfrastructure": 3744,
      "Ġretrieval": 3745,
      "AC": 3746,
      "string": 3747,
      "Ġavoid": 3748,
      "egration": 3749,
      "SV": 3750,
      "Aligned": 3751,
      "where": 3752,
      "Ġcognition": 3753,
      "Ġconfirm": 3754,
      "Ġlabel": 3755,
      "ĠJuly": 3756,
      "Ġmention": 3757,
      "eelman": 3758,
      "know": 3759,
      "Ġinflu": 3760,
      "Ġvision": 3761,
      "Ġdepth": 3762,
      "pm": 3763,
      "Ġanother": 3764,
      "ðŁĴ": 3765,
      "ero": 3766,
      "Ġwhether": 3767,
      "Ġthoughtful": 3768,
      "Ġrecursive": 3769,
      "Back": 3770,
      "Done": 3771,
      "eak": 3772,
      "Ġfire": 3773,
      "option": 3774,
      "ĠWith": 3775,
      "ometry": 3776,
      "gptos": 3777,
      "orn": 3778,
      "ubl": 3779,
      "Ġlikes": 3780,
      "Ġlocally": 3781,
      "89": 3782,
      "ĠCur": 3783,
      "esthetic": 3784,
      "ĠKeep": 3785,
      "nWant": 3786,
      "aut": 3787,
      "Cont": 3788,
      "icro": 3789,
      "Ġpoints": 3790,
      "anger": 3791,
      "Ġcompanion": 3792,
      "57": 3793,
      "ĠPOST": 3794,
      "Ġpresent": 3795,
      "Ġlands": 3796,
      "icon": 3797,
      "convo": 3798,
      "Ġsize": 3799,
      "Ġyes": 3800,
      "igu": 3801,
      "Ġrunnable": 3802,
      "Ġrecord": 3803,
      "Ġagreement": 3804,
      "Ġnov": 3805,
      "Ġshare": 3806,
      "Ġsettings": 3807,
      "eries": 3808,
      "dev": 3809,
      "Ġnon": 3810,
      "Ġones": 3811,
      "andom": 3812,
      "ĠDoes": 3813,
      "icense": 3814,
      "Ġsignals": 3815,
      "Ġmaintain": 3816,
      "ĠZ": 3817,
      "Ġhost": 3818,
      "ĠNOT": 3819,
      "aming": 3820,
      "Ġpick": 3821,
      "Ġasking": 3822,
      "coffee": 3823,
      "reason": 3824,
      "Ġlarge": 3825,
      "Ġkind": 3826,
      "CON": 3827,
      "Ġconsid": 3828,
      "Ġdifficult": 3829,
      "ĠGPTos": 3830,
      "Ġvector": 3831,
      "mat": 3832,
      "Ġsections": 3833,
      "ination": 3834,
      "logical": 3835,
      "lower": 3836,
      "Ġcomplexity": 3837,
      "usiness": 3838,
      "*\\": 3839,
      "limit": 3840,
      "Ġparameters": 3841,
      "Ġ38": 3842,
      "Ġreflexes": 3843,
      "Rep": 3844,
      "emantic": 3845,
      "Ġcy": 3846,
      "Ġsure": 3847,
      "**:\\": 3848,
      "ensity": 3849,
      "3010": 3850,
      "Ġ//": 3851,
      "Ġstances": 3852,
      "lette": 3853,
      "Every": 3854,
      "Ġexploring": 3855,
      "ators": 3856,
      "arlette": 3857,
      "Ġlead": 3858,
      "idden": 3859,
      "ES": 3860,
      "arter": 3861,
      "iddleware": 3862,
      "oice": 3863,
      "ĠNever": 3864,
      "ĠOutput": 3865,
      "preferences": 3866,
      "%)": 3867,
      "ĠMarch": 3868,
      ":///": 3869,
      "Ġmatching": 3870,
      "Ġdrives": 3871,
      "Ġrein": 3872,
      "Ġstat": 3873,
      "training": 3874,
      "Ġbecame": 3875,
      "Ġreads": 3876,
      "Ġcompression": 3877,
      "fil": 3878,
      "Ġgit": 3879,
      "iven": 3880,
      "ital": 3881,
      "conversations": 3882,
      "ĠPhilosophy": 3883,
      "Ġupload": 3884,
      "Ġemotional": 3885,
      "cp": 3886,
      "Ġsent": 3887,
      "Use": 3888,
      "ĠData": 3889,
      "prove": 3890,
      "max": 3891,
      "Ġphoto": 3892,
      "vest": 3893,
      "eg": 3894,
      "inition": 3895,
      "Ġtone": 3896,
      "Ġcent": 3897,
      "Ġconver": 3898,
      "Ġstructural": 3899,
      "Ġexplanations": 3900,
      "`:": 3901,
      "race": 3902,
      "Ġothers": 3903,
      "Ġcontinue": 3904,
      "coded": 3905,
      "Ġaesthetic": 3906,
      "Ġunless": 3907,
      "Ġimmediately": 3908,
      "Ġ===": 3909,
      "33": 3910,
      "ia": 3911,
      "words": 3912,
      "Ġdrift": 3913,
      "ĠOne": 3914,
      "Ġpriority": 3915,
      "Ġassumptions": 3916,
      "rc": 3917,
      "ĠĠĠĠĠĠĠĠĠĠĠĠĠĠ": 3918,
      "Ġweakness": 3919,
      "Key": 3920,
      "LT": 3921,
      "Ġnuance": 3922,
      "ract": 3923,
      "ĠFirst": 3924,
      "Ġenabled": 3925,
      "Result": 3926,
      "fter": 3927,
      "Ġtrace": 3928,
      "ĠComm": 3929,
      "iant": 3930,
      "Ġevol": 3931,
      "ĠRunning": 3932,
      "Ġcoherent": 3933,
      "Ġreport": 3934,
      "ĠSummary": 3935,
      "unday": 3936,
      "Ġdecide": 3937,
      "Ġdownload": 3938,
      "Ġmatches": 3939,
      "complexity": 3940,
      "Ġexplicitly": 3941,
      "driven": 3942,
      "ĠAs": 3943,
      "Ġraise": 3944,
      "Ġgeneral": 3945,
      "Ġexplain": 3946,
      "Ġcomputing": 3947,
      "nola": 3948,
      "ĠIS": 3949,
      "Ġtransp": 3950,
      "Ġservices": 3951,
      "Ġembeddings": 3952,
      "greg": 3953,
      "ĠImport": 3954,
      "RI": 3955,
      "ĠFalse": 3956,
      "Ġ37": 3957,
      "airness": 3958,
      "connection": 3959,
      "ĠFix": 3960,
      "lines": 3961,
      "ĠHebbian": 3962,
      "Ġseparation": 3963,
      "Ġprovides": 3964,
      "ellect": 3965,
      "ĠPref": 3966,
      "ĠFe": 3967,
      "Ġcomponent": 3968,
      "487": 3969,
      "/\\": 3970,
      "**.\\": 3971,
      "oute": 3972,
      "Ġworkflow": 3973,
      "ĠSH": 3974,
      "aus": 3975,
      "ĠSer": 3976,
      "ificial": 3977,
      "Ġprojects": 3978,
      "Ġrequests": 3979,
      "âĶĢâĶĲ": 3980,
      "tical": 3981,
      "ggle": 3982,
      "ĠUpdated": 3983,
      "MODE": 3984,
      "\"),": 3985,
      "sert": 3986,
      "Ġdefined": 3987,
      "ribution": 3988,
      "Reflex": 3989,
      "Ġvalu": 3990,
      "uplic": 3991,
      "Ġroutes": 3992,
      "Ġlandscap": 3993,
      "Ġ[](": 3994,
      "Create": 3995,
      "AB": 3996,
      "Ġproof": 3997,
      "commands": 3998,
      "Ġpackage": 3999,
      "Test": 4000,
      "inary": 4001,
      "Ġpair": 4002,
      "ĠSubconscious": 4003,
      "ĠWr": 4004,
      "ĠDef": 4005,
      "Ġeither": 4006,
      "Ġimportant": 4007,
      "Log": 4008,
      "leep": 4009,
      "ĠSunday": 4010,
      "Ġ19": 4011,
      "aging": 4012,
      "Ġexecutions": 4013,
      "Ġfeeds": 4014,
      "Ġsaid": 4015,
      "Ġsituations": 4016,
      "bit": 4017,
      "bigu": 4018,
      "ealth": 4019,
      "Ġdaemon": 4020,
      "Ġnode": 4021,
      "Ġaccount": 4022,
      "Ġselection": 4023,
      "Ġremove": 4024,
      "500": 4025,
      "Ġeffic": 4026,
      "Ser": 4027,
      "ĠField": 4028,
      "Ġoverride": 4029,
      "Ġstores": 4030,
      "ottom": 4031,
      "Ġrequired": 4032,
      "Ġoriginal": 4033,
      "Ġswitch": 4034,
      "ĠLocal": 4035,
      "Ġedge": 4036,
      "Ġsort": 4037,
      "Ġliter": 4038,
      "ister": 4039,
      "consent": 4040,
      "lack": 4041,
      "Ġinfo": 4042,
      "sv": 4043,
      "Ġloves": 4044,
      "allen": 4045,
      "oken": 4046,
      "README": 4047,
      "ĠNovember": 4048,
      "parent": 4049,
      "Ġcoffee": 4050,
      "imp": 4051,
      "Ġprev": 4052,
      "Ġdisplay": 4053,
      "Ġconfiguration": 4054,
      "ĠOver": 4055,
      "direct": 4056,
      "Ġmapping": 4057,
      "Ġwords": 4058,
      "update": 4059,
      "Ġwrites": 4060,
      "ĠCurrent": 4061,
      "ĠHonesty": 4062,
      "Ġfeels": 4063,
      "kindness": 4064,
      "Ġsense": 4065,
      "ends": 4066,
      "ĠĠĠĠĠĠĠĠĠĠĠĠĠĠĠĠĠĠ": 4067,
      "Ġpract": 4068,
      "Ġpossible": 4069,
      "Ġcomes": 4070,
      "short": 4071,
      "ellectual": 4072,
      "Ġscal": 4073,
      "Ġtracking": 4074,
      "rics": 4075,
      "233": 4076,
      "fairness": 4077,
      "agr": 4078,
      "ured": 4079,
      "Would": 4080,
      "Ġsurv": 4081,
      "ĠSeattle": 4082,
      "conflict": 4083,
      "ĠðŁĴ": 4084,
      "8000": 4085,
      "elog": 4086,
      "Ġcommit": 4087,
      "otential": 4088,
      "orp": 4089,
      "ished": 4090,
      "export": 4091,
      "Ġgravity": 4092,
      "Ġcodebase": 4093,
      "Ġreality": 4094,
      "edding": 4095,
      "Ġmass": 4096,
      "Ġscripts": 4097,
      "health": 4098,
      "empt": 4099,
      "idge": 4100,
      "uncertainty": 4101,
      "eful": 4102,
      "Good": 4103,
      "ropic": 4104,
      "łï¸ı": 4105,
      "Then": 4106,
      "exp": 4107,
      "Ġ\"^": 4108,
      "âĶĢâĶĢâĶ": 4109,
      "Ġforward": 4110,
      "Ġvery": 4111,
      "Ġreflection": 4112,
      "Ġstrongest": 4113,
      "orch": 4114,
      "Ġweek": 4115,
      "Ġcalled": 4116,
      "DF": 4117,
      "async": 4118,
      "select": 4119,
      "plied": 4120,
      "tsx": 4121,
      "âĶĢâĶĺ": 4122,
      "Ġasync": 4123,
      "Ġrows": 4124,
      "allee": 4125,
      "Page": 4126,
      "ping": 4127,
      "Ġsources": 4128,
      "Ġtrad": 4129,
      "pattern": 4130,
      "steelman": 4131,
      "Ġcache": 4132,
      "Ġfather": 4133,
      "Ġai": 4134,
      "enabled": 4135,
      "ategory": 4136,
      "POST": 4137,
      "2022": 4138,
      "ĠDet": 4139,
      "Ġsimilarly": 4140,
      "Ġnearby": 4141,
      "Ġdraft": 4142,
      "Sp": 4143,
      "turns": 4144,
      "Ġfloat": 4145,
      "Context": 4146,
      "ĠComple": 4147,
      "ars": 4148,
      "Ġrisk": 4149,
      "ĠFriend": 4150,
      "Ġintellectual": 4151,
      "Ġdel": 4152,
      "etings": 4153,
      "${": 4154,
      "ĠConcept": 4155,
      "Ġunified": 4156,
      "Ġapply": 4157,
      "141": 4158,
      "orning": 4159,
      "Ġproperly": 4160,
      "Ġsynt": 4161,
      "Ġreplace": 4162,
      ";\\": 4163,
      "ron": 4164,
      "Ġprove": 4165,
      "Ġparts": 4166,
      "pression": 4167,
      "terno": 4168,
      "certain": 4169,
      "Python": 4170,
      "vis": 4171,
      "âļ¡": 4172,
      "Ġface": 4173,
      "ĠTreat": 4174,
      "FO": 4175,
      "echnical": 4176,
      "Ap": 4177,
      "thropic": 4178,
      "Ġreceive": 4179,
      "section": 4180,
      "learn": 4181,
      "Ġok": 4182,
      "frontend": 4183,
      "Ġnote": 4184,
      "Ġretired": 4185,
      "SC": 4186,
      "Ġmer": 4187,
      "Ġ559": 4188,
      "Ġcli": 4189,
      "Ġvaluable": 4190,
      "Rec": 4191,
      "yes": 4192,
      "Ġ509": 4193,
      "olders": 4194,
      "Ġuncertain": 4195,
      "Ġoffice": 4196,
      "0328": 4197,
      "Ġ20260328": 4198,
      "233141": 4199,
      "Act": 4200,
      "Ġdefine": 4201,
      "Ġprocesses": 4202,
      "ĠPer": 4203,
      "ĠExp": 4204,
      "ĠProblem": 4205,
      "^^^^^^^^^^^^^^^^": 4206,
      "nWhat": 4207,
      "org": 4208,
      "ĠDr": 4209,
      "Ġx": 4210,
      "Ġgirl": 4211,
      "triggers": 4212,
      "Ġclick": 4213,
      "Tool": 4214,
      "Ġdependencies": 4215,
      "Ġbehalf": 4216,
      "Ġâļ": 4217,
      "Ġjob": 4218,
      "Ġclearly": 4219,
      "Ġacknowledge": 4220,
      "Hel": 4221,
      "Ġcross": 4222,
      "Ġless": 4223,
      "68": 4224,
      "erate": 4225,
      "Ġcoworker": 4226,
      "lege": 4227,
      "Ġpreser": 4228,
      "Ġqueries": 4229,
      "Ġexpect": 4230,
      "Ġcontract": 4231,
      "Ġminutes": 4232,
      "hand": 4233,
      "}>": 4234,
      "Ġrepre": 4235,
      "admap": 4236,
      "ĠCSV": 4237,
      "aware": 4238,
      "Ġmother": 4239,
      "ĠMark": 4240,
      "Ġexplo": 4241,
      "arr": 4242,
      "Ġlocation": 4243,
      "Ġafterno": 4244,
      "ĠFormer": 4245,
      "ĠCuriosity": 4246,
      "='": 4247,
      "Ġtre": 4248,
      "Ġput": 4249,
      "Ġstrategy": 4250,
      "emonstr": 4251,
      "ĠBeing": 4252,
      "ĠCollege": 4253,
      "areness": 4254,
      "eve": 4255,
      "ident": 4256,
      "construct": 4257,
      "ĠGET": 4258,
      "Ġenergy": 4259,
      "Ġlogged": 4260,
      "ersistent": 4261,
      "Do": 4262,
      "uck": 4263,
      "Ġexperience": 4264,
      "Ġskip": 4265,
      "rypt": 4266,
      "right": 4267,
      "Ġyoun": 4268,
      "Ġnotes": 4269,
      "Ġinteractions": 4270,
      "Ġgrilling": 4271,
      "Ġide": 4272,
      "strip": 4273,
      "ĠReally": 4274,
      "Ġvariables": 4275,
      "ĠDocker": 4276,
      "Ġspecialized": 4277,
      "mer": 4278,
      "Ġflowers": 4279,
      "69": 4280,
      "ĠPy": 4281,
      "points": 4282,
      "Ġdele": 4283,
      "dispatch": 4284,
      "ĠStatus": 4285,
      "Auth": 4286,
      "Ġcapt": 4287,
      "ĠRo": 4288,
      "Ġsummaries": 4289,
      "Ġmatter": 4290,
      "ĠWeb": 4291,
      "real": 4292,
      "Ġcontains": 4293,
      "ĠOnly": 4294,
      "Ġsister": 4295,
      "ider": 4296,
      "sync": 4297,
      "allel": 4298,
      "Ġorder": 4299,
      "Ġrepe": 4300,
      "DIR": 4301,
      "Ġyounger": 4302,
      "Ġflex": 4303,
      "ibr": 4304,
      "ĠFastAPI": 4305,
      "ecess": 4306,
      "ĠPattern": 4307,
      "Ġembrace": 4308,
      "domain": 4309,
      "ĠGPU": 4310,
      "Ġassemble": 4311,
      "Ġfundamentals": 4312,
      "tered": 4313,
      "rency": 4314,
      "Ġadjust": 4315,
      "initions": 4316,
      "Ġmaybe": 4317,
      "Ar": 4318,
      "At": 4319,
      
      "gl": 4321,
      "ĠKindness": 4322,
      "GB": 4323,
      "posed": 4324,
      "ĠPrefers": 4325,
      "43": 4326,
      "omm": 4327,
      "Ġshell": 4328,
      "lit": 4329,
      "Ġclose": 4330,
      "Ġsarah": 4331,
      "oin": 4332,
      "example": 4333,
      "ames": 4334,
      "Ġsmart": 4335,
      "ĠInter": 4336,
      "Type": 4337,
      "ĠKernel": 4338,
      "Ġdad": 4339,
      "Ġmig": 4340,
      "ĠDocument": 4341,
      "Ġnovel": 4342,
      "edit": 4343,
      "Ġindepend": 4344,
      "email": 4345,
      "ĠBr": 4346,
      "Ġconstant": 4347,
      "Ġ**\\": 4348,
      "LETE": 4349,
      "Next": 4350,
      "ĠType": 4351,
      "profiles": 4352,
      "Ġmethods": 4353,
      "Ġchoose": 4354,
      "Ġcontrad": 4355,
      "ply": 4356,
      "Ġnormal": 4357,
      "otstr": 4358,
      "Ġblocks": 4359,
      "UT": 4360,
      "cus": 4361,
      "uro": 4362,
      "ĠShe": 4363,
      "Ġproto": 4364,
      "Ġschedule": 4365,
      "Ġinfluence": 4366,
      "Ġlandscapes": 4367,
      "Ġafternoons": 4368,
      "[:": 4369,
      "lee": 4370,
      "Ġprof": 4371,
      "Ġbuilds": 4372,
      "SET": 4373,
      "Ġphotography": 4374,
      "Ġhonest": 4375,
      "acking": 4376,
      "Ġhandling": 4377,
      "Ġshape": 4378,
      "Ġnetwork": 4379,
      "They": 4380,
      "cord": 4381,
      "lace": 4382,
      "mall": 4383,
      "Ġest": 4384,
      "imits": 4385,
      "ĠThen": 4386,
      "Ġprogress": 4387,
      "ĠEmb": 4388,
      "trigger": 4389,
      "Ġcreating": 4390,
      "ĠEngage": 4391,
      "Ok": 4392,
      "Ġaccur": 4393,
      "Ġcollap": 4394,
      "Ġoptional": 4395,
      "Response": 4396,
      "Ġnoise": 4397,
      "ĠYes": 4398,
      "Ġvoice": 4399,
      "ĠThreads": 4400,
      "Ġsolve": 4401,
      "Ġconsistent": 4402,
      "Ġposition": 4403,
      "New": 4404,
      "cd": 4405,
      "asing": 4406,
      "Ġstays": 4407,
      "Ġopposing": 4408,
      "88": 4409,
      "Ġaggreg": 4410,
      "ĠConversation": 4411,
      "rix": 4412,
      "tract": 4413,
      "scope": 4414,
      "Ġchunk": 4415,
      "gor": 4416,
      "ĠBecause": 4417,
      "Ġcalc": 4418,
      "ĠAut": 4419,
      "Chain": 4420,
      "[\\\"": 4421,
      "ÃĹ": 4422,
      "Ġfailed": 4423,
      "ĠReturns": 4424,
      "nfrom": 4425,
      "Ġpermis": 4426,
      "duce": 4427,
      "design": 4428,
      "Ġearly": 4429,
      "gorith": 4430,
      "Ġcatch": 4431,
      "Ġcapability": 4432,
      "ĠSHORT": 4433,
      "\"}": 4434,
      "75": 4435,
      "iance": 4436,
      "Ġcharact": 4437,
      "Option": 4438,
      "apped": 4439,
      "FAU": 4440,
      "verse": 4441,
      "poses": 4442,
      "Exactly": 4443,
      "FAULT": 4444,
      "Ġnatural": 4445,
      "Sh": 4446,
      "routing": 4447,
      "Ġblack": 4448,
      "Qu": 4449,
      "gence": 4450,
      "urther": 4451,
      "udca": 4452,
      "Ġcolumn": 4453,
      "Ġge": 4454,
      "ĠDemo": 4455,
      "hesis": 4456,
      "LOG": 4457,
      "--|--------": 4458,
      "ĠĠĠĠĠĠĠĠĠĠĠĠĠĠĠĠĠĠĠĠĠĠĠĠĠĠĠ": 4459,
      "Ġspecifically": 4460,
      "Ġbig": 4461,
      "ĠMulti": 4462,
      "ĠCo": 4463,
      "execut": 4464,
      "ĠSarah": 4465,
      "Ġvol": 4466,
      "ously": 4467,
      "Ġsolid": 4468,
      "Ġtransform": 4469,
      "Ġsoftware": 4470,
      "Ġseen": 4471,
      "Ġcurrently": 4472,
      "Ġregistration": 4473,
      "Click": 4474,
      "forcement": 4475,
      "idual": 4476,
      "endar": 4477,
      "Ġroadmap": 4478,
      "Ġcorrectly": 4479,
      "bound": 4480,
      "Ġ||": 4481,
      "ĠWorks": 4482,
      "Ġstream": 4483,
      "Ġ16": 4484,
      "plies": 4485,
      "ĠIntegration": 4486,
      "tes": 4487,
      "Ġ13": 4488,
      "Ġprivacy": 4489,
      "Ġartificial": 4490,
      "part": 4491,
      "Ġsl": 4492,
      "edium": 4493,
      "Ġfallback": 4494,
      "Ġdim": 4495,
      "clude": 4496,
      "Ġsnapshot": 4497,
      "imate": 4498,
      "ĠCall": 4499,
      "archy": 4500,
      "Ġimplemented": 4501,
      "Ġorigin": 4502,
      "Ġmemories": 4503,
      "itions": 4504,
      "Ġbasic": 4505,
      "ills": 4506,
      "chatgpt": 4507,
      "ĠBy": 4508,
      "RU": 4509,
      "uc": 4510,
      "Ġsens": 4511,
      "channel": 4512,
      "ĠCognitive": 4513,
      "Ġparse": 4514,
      "rets": 4515,
      "olic": 4516,
      "Ġfocused": 4517,
      "âĶĮ": 4518,
      "Ġ(~": 4519,
      "Ġinteraction": 4520,
      "fast": 4521,
      "{\"": 4522,
      "Ġdynamic": 4523,
      "that": 4524,
      "ĠMe": 4525,
      "ĠPhase": 4526,
      "Ġcomparison": 4527,
      "Un": 4528,
      "ATION": 4529,
      "Ġapi": 4530,
      "ikes": 4531,
      "irc": 4532,
      "Ġbox": 4533,
      "__.": 4534,
      "create": 4535,
      "ĠâĨĶ": 4536,
      "ĠFrontend": 4537,
      "NT": 4538,
      "nP": 4539,
      "Ġdemonstr": 4540,
      "2518": 4541,
      "Ġoptions": 4542,
      "Ġstarting": 4543,
      "Ġpartic": 4544,
      "Ġvisible": 4545,
      "ty": 4546,
      "yond": 4547,
      "Ġ\",": 4548,
      "Ġaffect": 4549,
      ")**\\": 4550,
      "System": 4551,
      "nIt": 4552,
      "Ġreact": 4553,
      "ĠPrompt": 4554,
      "embly": 4555,
      "Ġhardware": 4556,
      "Ġgap": 4557,
      "Ġreferences": 4558,
      "Ġeng": 4559,
      "Ġanswers": 4560,
      "ĠDesign": 4561,
      "All": 4562,
      "Ġtri": 4563,
      "ĠLevel": 4564,
      "Ġallows": 4565,
      "./": 4566,
      "more": 4567,
      "Ġfore": 4568,
      "Ġpreferences": 4569,
      "ww": 4570,
      "Ġfrequ": 4571,
      "Ġadding": 4572,
      "ķĲâķĲâķĲâķĲâķĲâķĲâķĲâķĲâ": 4573,
      "Ġorchestrator": 4574,
      "ql": 4575,
      "Ġcases": 4576,
      "Ġpop": 4577,
      "ĠuseState": 4578,
      "Flex": 4579,
      "ndef": 4580,
      "Ġrate": 4581,
      "grad": 4582,
      "Ġfailure": 4583,
      "AP": 4584,
      "Or": 4585,
      "Ġtemplate": 4586,
      "icated": 4587,
      "ender": 4588,
      "Ġshared": 4589,
      "essional": 4590,
      "Ġphr": 4591,
      "ĠAc": 4592,
      "Gr": 4593,
      "Ġconsolid": 4594,
      "ifferent": 4595,
      "Ġparser": 4596,
      "ĠInterest": 4597,
      "ĠControl": 4598,
      "Hello": 4599,
      "Id": 4600,
      "Local": 4601,
      "Ġstartup": 4602,
      "Ġeval": 4603,
      "havioral": 4604,
      "auth": 4605,
      "gu": 4606,
      "escal": 4607,
      "abs": 4608,
      "Ġstateless": 4609,
      "Se": 4610,
      "2510": 4611,
      "services": 4612,
      "plit": 4613,
      "aily": 4614,
      "fer": 4615,
      "ership": 4616,
      "Ġâī": 4617,
      "Ġaway": 4618,
      "================================================================": 4619,
      "Ġ\"\"": 4620,
      "Ġinstant": 4621,
      "ierarchical": 4622,
      "tics": 4623,
      "Ġinspect": 4624,
      "ifies": 4625,
      "Ġunique": 4626,
      "behavior": 4627,
      "oint": 4628,
      "Ġglobal": 4629,
      "JSON": 4630,
      "Ġship": 4631,
      "Ġdeveloper": 4632,
      "Ġstack": 4633,
      "this": 4634,
      "Adapter": 4635,
      "Ġign": 4636,
      "angerous": 4637,
      "Ġtou": 4638,
      "Ġbeyond": 4639,
      "Ġcred": 4640,
      "ĠExper": 4641,
      "Ġbreakdown": 4642,
      "ĠImplementation": 4643,
      "most": 4644,
      "Ġchain": 4645,
      "Ġdetect": 4646,
      "Ġbinary": 4647,
      "train": 4648,
      "Ġabstr": 4649,
      "Ġfunctional": 4650,
      "Ġtitle": 4651,
      "ĠLayer": 4652,
      "Ġparameter": 4653,
      "ĠRAG": 4654,
      "Ġsell": 4655,
      "ĠClean": 4656,
      "serv": 4657,
      "ĠPolaris": 4658,
      "angChain": 4659,
      "Ġformal": 4660,
      "alled": 4661,
      "Ġtrain": 4662,
      "66": 4663,
      "Ġcar": 4664,
      "Ġpur": 4665,
      "Ġcannot": 4666,
      "ĠAnaly": 4667,
      "Ġhigher": 4668,
      "Ġregistry": 4669,
      "registry": 4670,
      "Ġcompute": 4671,
      "ĠSearch": 4672,
      "ood": 4673,
      "}`": 4674,
      "Ġpitch": 4675,
      "iding": 4676,
      "Ġcome": 4677,
      "ĠResearch": 4678,
      "dr": 4679,
      "npm": 4680,
      "ues": 4681,
      "Ġtag": 4682,
      "---|--------": 4683,
      "Ġaccept": 4684,
      "ards": 4685,
      "Ġprovider": 4686,
      "nAnd": 4687,
      "ĠPersonal": 4688,
      "Ġexpand": 4689,
      "Ġprivate": 4690,
      "Ġsidebar": 4691,
      "Ġprevents": 4692,
      "îĪ": 4693,
      "Ġlimits": 4694,
      "Ġ}\\": 4695,
      "Ġcritical": 4696,
      "dashboard": 4697,
      "starlette": 4698,
      "ival": 4699,
      "Ġentries": 4700,
      "Ġbenchmark": 4701,
      "Ġterms": 4702,
      "Ġ+=": 4703,
      "pact": 4704,
      "Ġfails": 4705,
      "utdown": 4706,
      "Ġparsing": 4707,
      "Ġguess": 4708,
      "SP": 4709,
      "df": 4710,
      "\\\"\\\"": 4711,
      "Ġexpected": 4712,
      "GE": 4713,
      "high": 4714,
      "ĠDec": 4715,
      "parse": 4716,
      "ĠTrans": 4717,
      "VE": 4718,
      "imal": 4719,
      "Ġhidden": 4720,
      "post": 4721,
      "ĠðŁļ": 4722,
      "Ġconnections": 4723,
      "Ġyears": 4724,
      "Ġcolor": 4725,
      "onent": 4726,
      "Ġplease": 4727,
      "Ġstable": 4728,
      "ĠĠĠĠĠĠĠĠĠĠĠĠĠĠĠĠĠĠĠĠĠĠĠĠĠ": 4729,
      "Ġattempt": 4730,
      "Ġfiltering": 4731,
      "Ġhierarchical": 4732,
      "aid": 4733,
      "Ġdi": 4734,
      "aged": 4735,
      "Ġboundaries": 4736,
      "Ġfilters": 4737,
      "ABLE": 4738,
      "lation": 4739,
      "valid": 4740,
      "ĠâĶĢâĶĢ": 4741,
      "Ġchallen": 4742,
      "Ġsuper": 4743,
      "ĠâĨĲ": 4744,
      "Ġfoundation": 4745,
      "click": 4746,
      "Ġprinciples": 4747,
      "plicit": 4748,
      "finetune": 4749,
      "MIT": 4750,
      "ĠMost": 4751,
      "andbox": 4752,
      "Ġperman": 4753,
      "EY": 4754,
      "imitless": 4755,
      "Ġdeployment": 4756,
      "NE": 4757,
      "Ġdays": 4758,
      "âĢ¢": 4759,
      "ĠRemo": 4760,
      "ĠThere": 4761,
      "Ġcalling": 4762,
      "79": 4763,
      "Ġbusiness": 4764,
      "versar": 4765,
      "Ġscr": 4766,
      "clud": 4767,
      "ĠModels": 4768,
      "46": 4769,
      "Ġsound": 4770,
      "order": 4771,
      "ĠAPIs": 4772,
      "])": 4773,
      "Ġlicense": 4774,
      "Ġ*âĢľ": 4775,
      "274": 4776,
      "versarial": 4777,
      "Ġpubl": 4778,
      "Ġbeg": 4779,
      "Ġfunctionality": 4780,
      "plications": 4781,
      "Ġchoice": 4782,
      "ĠGoogle": 4783,
      "Ġprec": 4784,
      "Ġarchitectures": 4785,
      "evelopment": 4786,
      "sions": 4787,
      "Ġspeak": 4788,
      "Ġintro": 4789,
      "Call": 4790,
      "INFO": 4791,
      "Ġstuff": 4792,
      "aches": 4793,
      ",\"": 4794,
      "Current": 4795,
      "orld": 4796,
      "Ġdig": 4797,
      "())": 4798,
      "icture": 4799,
      "SER": 4800,
      "Ev": 4801,
      "target": 4802,
      "ctr": 4803,
      "Ġdot": 4804,
      "Ġduplic": 4805,
      "uning": 4806,
      "Conversation": 4807,
      "Ġseeing": 4808,
      "Ġfaster": 4809,
      "Ġcommunication": 4810,
      "Ġpowerful": 4811,
      "Base": 4812,
      "Ġollama": 4813,
      "Ġinstance": 4814,
      "Ġstarted": 4815,
      "Ġfresh": 4816,
      "ĠĠĠĠĠĠĠĠĠĠĠĠĠĠĠĠĠĠĠĠĠĠĠĠ": 4817,
      "ecessary": 4818,
      "Ġindiv": 4819,
      "ĠFl": 4820,
      "Ġmodify": 4821,
      "Ġsimpl": 4822,
      "imulus": 4823,
      "';": 4824,
      "nov": 4825,
      "icorn": 4826,
      "resolved": 4827,
      "herence": 4828,
      "Ġhook": 4829,
      "ius": 4830,
      "Ġexc": 4831,
      "lama": 4832,
      "Ġbad": 4833,
      "Ġ(\\": 4834,
      "ĠPurpose": 4835,
      "ĠDomain": 4836,
      "way": 4837,
      "Ġtree": 4838,
      "Ġstates": 4839,
      "avig": 4840,
      "Par": 4841,
      "Ġincluding": 4842,
      "ze": 4843,
      "ĠCO": 4844,
      "Ġtrained": 4845,
      "sub": 4846,
      "constraint": 4847,
      "ĠâĶĮ": 4848,
      "Ġfixed": 4849,
      "CO": 4850,
      "why": 4851,
      "ĠInput": 4852,
      "ĠDEFAULT": 4853,
      "ias": 4854,
      "Ġtiny": 4855,
      "ĠNe": 4856,
      "ĠNeed": 4857,
      "ĠTools": 4858,
      "ĠTraining": 4859,
      "Ġdynam": 4860,
      "();": 4861,
      "IG": 4862,
      "Ġisol": 4863,
      "Ġrandom": 4864,
      "awareness": 4865,
      "Ġcontinuity": 4866,
      "ĠInterested": 4867,
      "jor": 4868,
      "Ġslow": 4869,
      "Ġfurther": 4870,
      "Ġbirthday": 4871,
      "ĠAND": 4872,
      "Ġadapters": 4873,
      "interface": 4874,
      "inct": 4875,
      "ested": 4876,
      "jsonl": 4877,
      "Ġexports": 4878,
      "Ġassessment": 4879,
      "false": 4880,
      "oding": 4881,
      "Ġparams": 4882,
      "/*": 4883,
      "hel": 4884,
      "Ġdont": 4885,
      "ĠPDF": 4886,
      "Ġengineering": 4887,
      "Because": 4888,
      "Ġpoll": 4889,
      "Ġcomb": 4890,
      "Ġproduction": 4891,
      "Ġrepos": 4892,
      "Ġtoggle": 4893,
      "atever": 4894,
      "ĠFROM": 4895,
      "ĠVer": 4896,
      "Ġquant": 4897,
      "ĠThreadCore": 4898,
      "impse": 4899,
      "Self": 4900,
      "Ġdecay": 4901,
      "orrect": 4902,
      "hr": 4903,
      "mit": 4904,
      "Ġess": 4905,
      "Ġnight": 4906,
      "Ġuseful": 4907,
      "gz": 4908,
      "uy": 4909,
      "Ġgoes": 4910,
      "Ġambigu": 4911,
      "Ġprefer": 4912,
      "otal": 4913,
      "Ġgetting": 4914,
      "Ġabove": 4915,
      "FILE": 4916,
      "\"**": 4917,
      "Got": 4918,
      "Phase": 4919,
      "verage": 4920,
      "Ġlonger": 4921,
      "ditions": 4922,
      "Frontend": 4923,
      "Ġliterally": 4924,
      "dition": 4925,
      "ĠDev": 4926,
      "Ġchanged": 4927,
      "ĠEngine": 4928,
      "family": 4929,
      "ĸ¼": 4930,
      "ĠTH": 4931,
      "ĠScore": 4932,
      "Ġlove": 4933,
      "ĠLike": 4934,
      "Ġthats": 4935,
      "ĠProject": 4936,
      "tune": 4937,
      "Ġideas": 4938,
      "hard": 4939,
      "Ġdispatch": 4940,
      "Ġstrateg": 4941,
      "Ġbool": 4942,
      "Ġclosing": 4943,
      "Ġsemantic": 4944,
      "Ġfit": 4945,
      "Ġunivers": 4946,
      "Backend": 4947,
      "ouble": 4948,
      "Ġdetection": 4949,
      "Ġcompletion": 4950,
      "Def": 4951,
      "aring": 4952,
      "Ġdensity": 4953,
      "Ġabsolutely": 4954,
      "Start": 4955,
      "Ġvalidate": 4956,
      "Ġtalking": 4957,
      "Is": 4958,
      "ĠĠĠĠĠĠĠĠĠĠĠĠĊ": 4959,
      "quences": 4960,
      "acity": 4961,
      "priate": 4962,
      "}</": 4963,
      "Ġscre": 4964,
      "Ġlayout": 4965,
      "Ġchunks": 4966,
      "Form": 4967,
      "wit": 4968,
      "ĠAfter": 4969,
      "ump": 4970,
      "Ġmanually": 4971,
      "Ġflat": 4972,
      "sycho": 4973,
      "PL": 4974,
      "urable": 4975,
      "Ġ/>": 4976,
      "Ġinputs": 4977,
      "category": 4978,
      "Ġred": 4979,
      "()`,": 4980,
      "2193": 4981,
      "Structure": 4982,
      "Ġconfidence": 4983,
      "Ġprobably": 4984,
      "Ġchatbot": 4985,
      "Ġelif": 4986,
      "54": 4987,
      "Ġbatch": 4988,
      "Ġ**\"": 4989,
      "ensions": 4990,
      "(\"/": 4991,
      "ERE": 4992,
      "Pl": 4993,
      "var": 4994,
      "Ġgenerates": 4995,
      "book": 4996,
      "Ġcommunity": 4997,
      "Level": 4998,
      "TO": 4999,
      "conv": 5000,
      "LECT": 5001,
      "Ġpairs": 5002,
      "integr": 5003,
      "ĠTheory": 5004,
      "RESET": 5005,
      "Ġsecond": 5006,
      "Ġsurface": 5007,
      "Ġdeterministic": 5008,
      "Data": 5009,
      "cache": 5010,
      "hook": 5011,
      "Ġalgorith": 5012,
      "cent": 5013,
      "stor": 5014,
      "Ġdirection": 5015,
      "apers": 5016,
      "ĠHand": 5017,
      "ĠBuilt": 5018,
      "Ġoutside": 5019,
      "Ġchangelog": 5020,
      "market": 5021,
      "Ġwrapper": 5022,
      "aligned": 5023,
      "Ġpress": 5024,
      "duct": 5025,
      "Ġeasy": 5026,
      "ittle": 5027,
      "etter": 5028,
      "omic": 5029,
      "ĠEX": 5030,
      "Ġappend": 5031,
      "Comple": 5032,
      "ename": 5033,
      "ĠSame": 5034,
      "ĠFunction": 5035,
      "Ġ*/": 5036,
      "Ġclassification": 5037,
      "ARIS": 5038,
      "Ġoptimal": 5039,
      "Ġhaven": 5040,
      "rict": 5041,
      "Ġensuring": 5042,
      "Ġorchestration": 5043,
      "Ġindividual": 5044,
      "ĠURL": 5045,
      "Ġ\\\"/": 5046,
      "Ġforce": 5047,
      "ĠML": 5048,
      "AE": 5049,
      "Ġnodes": 5050,
      "Ġplay": 5051,
      "ĠProcess": 5052,
      "Ġhelper": 5053,
      "holder": 5054,
      "hile": 5055,
      "alluc": 5056,
      "dates": 5057,
      "diction": 5058,
      "Ġsil": 5059,
      "Ġrecomm": 5060,
      "Ġstatic": 5061,
      "Ġever": 5062,
      "ideo": 5063,
      "ownload": 5064,
      "Ġmetrics": 5065,
      "CTU": 5066,
      "Ġllm": 5067,
      "ibrary": 5068,
      "iod": 5069,
      "Ġspeed": 5070,
      "...\\": 5071,
      "Ġcategory": 5072,
      "Ready": 5073,
      "Ġcollaborations": 5074,
      "agram": 5075,
      "67": 5076,
      "Ġcamp": 5077,
      "Ġdefinitions": 5078,
      "avy": 5079,
      "Ġmeasure": 5080,
      "Ġsaved": 5081,
      "ĠLearning": 5082,
      "Ġâļłï¸ı": 5083,
      "Ġparent": 5084,
      "Ġbel": 5085,
      "irt": 5086,
      "ĠBedrock": 5087,
      "preview": 5088,
      "Ġpriorit": 5089,
      "-|--------": 5090,
      "53": 5091,
      "enar": 5092,
      "Ġ\"@": 5093,
      "ĠDep": 5094,
      "trans": 5095,
      "ĠAlignment": 5096,
      "Ġoperating": 5097,
      "loops": 5098,
      "Ġshift": 5099,
      "Ġpicture": 5100,
      "ðŁĵ": 5101,
      "Ġintrospect": 5102,
      "Status": 5103,
      "ThreadAdapter": 5104,
      "ouse": 5105,
      "ulated": 5106,
      "Ġimage": 5107,
      "Ġassembly": 5108,
      "Ġfolders": 5109,
      "Ġstats": 5110,
      "ĠInd": 5111,
      "ĠMis": 5112,
      "known": 5113,
      "Ġefficient": 5114,
      "which": 5115,
      "upport": 5116,
      "join": 5117,
      "ivity": 5118,
      "Ġtra": 5119,
      "ires": 5120,
      "oves": 5121,
      "1000": 5122,
      "send": 5123,
      "Ġcert": 5124,
      "ĠFeed": 5125,
      "Ġscope": 5126,
      "Ġknown": 5127,
      "Most": 5128,
      "src": 5129,
      "Ġrelease": 5130,
      "adem": 5131,
      "ĠCPU": 5132,
      "Ġable": 5133,
      "decisions": 5134,
      "Ġpolic": 5135,
      ")**:": 5136,
      "ones": 5137,
      "chun": 5138,
      "soft": 5139,
      "}\"": 5140,
      "Ġnamed": 5141,
      "localhost": 5142,
      "Ab": 5143,
      "iency": 5144,
      "ĠĠĠĠĠĠĠĠĠĠĠĠĠĠĠĠĠĠĠĠ": 5145,
      "Ġcool": 5146,
      "58": 5147,
      "iring": 5148,
      "ĠĠĠĠĠĠĠĠĠĠĠĠĠĠĠĠĠĠĠĠĠĠĠĠĠĠĠĠĠ": 5149,
      "Ġfollowing": 5150,
      "Inter": 5151,
      "52": 5152,
      "ken": 5153,
      "ĠSec": 5154,
      "ĠDocumenting": 5155,
      "Ġdetailed": 5156,
      "Script": 5157,
      "Yeah": 5158,
      "Ġtakes": 5159,
      "atches": 5160,
      "Ġhappened": 5161,
      "Ġpus": 5162,
      "Ġ127": 5163,
      "Ġfront": 5164,
      "Ġbranch": 5165,
      "Ġresolve": 5166,
      "Ġlightweight": 5167,
      "csv": 5168,
      "true": 5169,
      "Ġgreat": 5170,
      "abilities": 5171,
      "Ġecho": 5172,
      "Ġprevious": 5173,
      "Ġgenerated": 5174,
      "Ġplus": 5175,
      "ASE": 5176,
      "overy": 5177,
      "ĠJan": 5178,
      "Ġaddress": 5179,
      "Ġresolution": 5180,
      "title": 5181,
      "aching": 5182,
      "aced": 5183,
      "Ġmanage": 5184,
      "ITY": 5185,
      "Ġpayload": 5186,
      "\"{": 5187,
      "UR": 5188,
      "ĠCSS": 5189,
      "ĠonClick": 5190,
      "ĠHealth": 5191,
      "Ġloaded": 5192,
      "lear": 5193,
      "0000": 5194,
      "net": 5195,
      "ĠLo": 5196,
      "ĠLook": 5197,
      "acks": 5198,
      "control": 5199,
      "Ġbehind": 5200,
      "ctrine": 5201,
      "Pre": 5202,
      "temp": 5203,
      "Ġsite": 5204,
      "Ġdem": 5205,
      "ĠFocus": 5206,
      "Ġimprove": 5207,
      "ificant": 5208,
      "Ġimported": 5209,
      "Ass": 5210,
      "ĠLoad": 5211,
      "\\\")": 5212,
      "ĠStimuli": 5213,
      "ðŁĮ": 5214,
      "ĠFeature": 5215,
      "full": 5216,
      "Ġgiving": 5217,
      "Ġ>=": 5218,
      "ater": 5219,
      "ority": 5220,
      "idth": 5221,
      "âĢĳ": 5222,
      "Ġ24": 5223,
      "ĠðŁİ": 5224,
      "Ġallowed": 5225,
      "Ġphysical": 5226,
      "ĠFinal": 5227,
      "ivation": 5228,
      "plain": 5229,
      "ĠResult": 5230,
      "Ġhierarchy": 5231,
      "DB": 5232,
      "With": 5233,
      "ining": 5234,
      "orig": 5235,
      "Ġquality": 5236,
      "Inst": 5237,
      "management": 5238,
      "otstrap": 5239,
      "witter": 5240,
      "ym": 5241,
      "timul": 5242,
      "Ġprep": 5243,
      "Ġrule": 5244,
      "ĠðŁļĢ": 5245,
      "sence": 5246,
      "Input": 5247,
      "iece": 5248,
      "Ġsupports": 5249,
      "ãĢĳãĢĲ": 5250,
      "Ġaud": 5251,
      "items": 5252,
      "ĠMO": 5253,
      "ĠDirect": 5254,
      "Ġarr": 5255,
      "Ġoverl": 5256,
      "Ġsimulate": 5257,
      "Ġmarkdown": 5258,
      "registration": 5259,
      "uvicorn": 5260,
      "AME": 5261,
      "aster": 5262,
      "Ġcompet": 5263,
      "Ġcolumns": 5264,
      "Ġconsidering": 5265,
      "Philosophy": 5266,
      "icker": 5267,
      "Ġscaffolding": 5268,
      "tely": 5269,
      "Ġund": 5270,
      "Ġutil": 5271,
      "ĠAg": 5272,
      "client": 5273,
      "Ġsmaller": 5274,
      "Ġwhatever": 5275,
      "Ġsaf": 5276,
      "ĠQuick": 5277,
      "snapshot": 5278,
      "Ġ**`": 5279,
      "extract": 5280,
      "ĠFlow": 5281,
      "oney": 5282,
      "Ġsocial": 5283,
      "Ġmentioned": 5284,
      "Ġrepresent": 5285,
      "layer": 5286,
      "pull": 5287,
      "itory": 5288,
      "lever": 5289,
      "split": 5290,
      "Ġcontainer": 5291,
      "Ġsplit": 5292,
      "Ġfont": 5293,
      "Ġinvest": 5294,
      "Ġquickly": 5295,
      "Ġcycle": 5296,
      "scores": 5297,
      "ane": 5298,
      "Ġpotential": 5299,
      "Check": 5300,
      "Get": 5301,
      "Stimul": 5302,
      "gle": 5303,
      "month": 5304,
      "attention": 5305,
      "allow": 5306,
      "ĠSol": 5307,
      "Ġcoord": 5308,
      "Ġindic": 5309,
      "Work": 5310,
      "Ġintern": 5311,
      "Ġrelationships": 5312,
      "Ġenterprise": 5313,
      "nYour": 5314,
      "ĠWeight": 5315,
      "'.": 5316,
      "ites": 5317,
      "ĠPost": 5318,
      "every": 5319,
      "Ġsaying": 5320,
      "Ġmirror": 5321,
      "400": 5322,
      "56": 5323,
      "Ġreconstruct": 5324,
      "Ġexecutable": 5325,
      "ĠNP": 5326,
      "Ġ\\\"\\\"\\\"\\": 5327,
      "Ġguide": 5328,
      "Ġprovided": 5329,
      "Ġtimestamps": 5330,
      "Just": 5331,
      "Sock": 5332,
      "ĠÃĹ": 5333,
      "stack": 5334,
      "andid": 5335,
      "__(": 5336,
      "Ġappropriate": 5337,
      "arency": 5338,
      "ocab": 5339,
      "Content": 5340,
      "Ġarchive": 5341,
      "cel": 5342,
      "middleware": 5343,
      "Ġrev": 5344,
      "ĠBen": 5345,
      "ĠVis": 5346,
      "MODEL": 5347,
      "Ġfar": 5348,
      "umps": 5349,
      "ĠLink": 5350,
      "ĠDeep": 5351,
      "ĠConfig": 5352,
      "Ġframing": 5353,
      "Ġexperiment": 5354,
      "Ġhappening": 5355,
      "ĠAre": 5356,
      "again": 5357,
      "ĠName": 5358,
      "Ġ\\\"\\\"\\\"": 5359,
      "ensive": 5360,
      "elines": 5361,
      "Ġalong": 5362,
      "rivacy": 5363,
      "they": 5364,
      "ĠCreated": 5365,
      "Ġcentral": 5366,
      "?âĢĿ": 5367,
      "\\\"]": 5368,
      "archive": 5369,
      "Ġargum": 5370,
      "fetch": 5371,
      "nHere": 5372,
      "Ġbio": 5373,
      "Ġconstruct": 5374,
      "Ġthough": 5375,
      "grade": 5376,
      "Ġstructures": 5377,
      "hics": 5378,
      "Ġcommon": 5379,
      "HEA": 5380,
      "Ġsimilarity": 5381,
      "ĠSpec": 5382,
      "Ġgeometry": 5383,
      "87": 5384,
      "IME": 5385,
      "bust": 5386,
      "Ġnull": 5387,
      "Ġ118": 5388,
      "ĠWHERE": 5389,
      "generated": 5390,
      "Ġwriting": 5391,
      "Ġpassed": 5392,
      "Ġprogramm": 5393,
      "Ġreinforced": 5394,
      "Ġbeli": 5395,
      "emplates": 5396,
      "eks": 5397,
      "qwen": 5398,
      "Exception": 5399,
      "={{": 5400,
      "Ġinjection": 5401,
      "Ġconvos": 5402,
      "Ġremaining": 5403,
      "proved": 5404,
      "oth": 5405,
      "Ġpi": 5406,
      "Ġbot": 5407,
      "ĠOb": 5408,
      "Service": 5409,
      "!**": 5410,
      "Ġoc": 5411,
      "ĠLoves": 5412,
      "ĠGUI": 5413,
      "Ġhelps": 5414,
      "Ġproduce": 5415,
      "ĠWrite": 5416,
      "Ġcamping": 5417,
      "aMA": 5418,
      "ĠMake": 5419,
      "clusion": 5420,
      "Ġparallel": 5421,
      "Ġasked": 5422,
      "Socket": 5423,
      "bc": 5424,
      "likes": 5425,
      "ĠOR": 5426,
      "Ġbridge": 5427,
      "Ġkeeping": 5428,
      "Ġbreaks": 5429,
      "Ġentirely": 5430,
      "comparison": 5431,
      "Ran": 5432,
      "Subconscious": 5433,
      "Ġdomains": 5434,
      "chestrator": 5435,
      "orpor": 5436,
      "[]": 5437,
      "mas": 5438,
      "Ġwire": 5439,
      "oden": 5440,
      "ĠFin": 5441,
      "iential": 5442,
      "ĠBackground": 5443,
      "800": 5444,
      "Ġcirc": 5445,
      "science": 5446,
      "PAT": 5447,
      "summar": 5448,
      "Ġdb": 5449,
      "Step": 5450,
      "irtual": 5451,
      "Build": 5452,
      "lier": 5453,
      "abl": 5454,
      "Ġtrade": 5455,
      "ypot": 5456,
      "http": 5457,
      "Ġmaintains": 5458,
      "Ġcompressed": 5459,
      "instance": 5460,
      "Ġ500": 5461,
      "Ġscaling": 5462,
      "\".": 5463,
      "Ġlife": 5464,
      "sonance": 5465,
      "Ġpersonality": 5466,
      "Ġimprovements": 5467,
      "Ġsignificant": 5468,
      "optional": 5469,
      "models": 5470,
      "Ġdead": 5471,
      "Ġwritten": 5472,
      "AS": 5473,
      "onents": 5474,
      "att": 5475,
      "Ġconditions": 5476,
      "iral": 5477,
      "ĠDatabase": 5478,
      "coding": 5479,
      "Where": 5480,
      "fort": 5481,
      "Ġâĸ¼": 5482,
      "my": 5483,
      "Ġstub": 5484,
      "ĠMin": 5485,
      "eces": 5486,
      "ĠLL": 5487,
      "Ġreading": 5488,
      "aptop": 5489,
      "Ġprotect": 5490,
      "âĶĢâĶĢâĶĢâĶĢâĶĢâĶĢâĶĢâĶĢâĶĢâĶĢâĶĢâĶĢâĶĢâĶĢâĶĢâĶĢâĶĢâĶĢâĶĢâĶĢâĶĢâĶĢâĶĢâĶĢâĶĢâĶĢâĶĢâĶĢâĶĢâĶĢâĶĢâĶĢâĶĢâĶĢâĶĢâĶĢâĶĢâĶĢâĶĢâĶĢâĶĢâĶĢâĶĢâĶĢâĶĢâĶĢâĶĢâĶĢâĶĢâĶĢâĶĢâĶĢâĶĢâĶĢâĶĢâĶĢâĶĢâĶĢâĶĢâĶĢ": 5491,
      "glimpse": 5492,
      "oped": 5493,
      "ĠLangChain": 5494,
      "Profile": 5495,
      "ĠDon": 5496,
      "vert": 5497,
      "Ġoptimization": 5498,
      "Load": 5499,
      "SQL": 5500,
      "iet": 5501,
      "adapter": 5502,
      "ĠRouting": 5503,
      "ypass": 5504,
      "ĠBreak": 5505,
      "Ġsequence": 5506,
      "Ġregistered": 5507,
      "ĠHTTPException": 5508,
      "Ġanchor": 5509,
      "info": 5510,
      "Ġchannel": 5511,
      "OLA": 5512,
      "ĠStrategy": 5513,
      "Ġdebugging": 5514,
      "iability": 5515,
      "ute": 5516,
      "Ġgame": 5517,
      "âĢ¦": 5518,
      "CTURE": 5519,
      "stimuli": 5520,
      "oretical": 5521,
      "Ġleft": 5522,
      "Ġzero": 5523,
      "ajor": 5524,
      "firm": 5525,
      "save": 5526,
      "Ġpiece": 5527,
      "istics": 5528,
      "Ġproceed": 5529,
      "Ġalone": 5530,
      "Ġrobust": 5531,
      "edia": 5532,
      "ĠActually": 5533,
      "Stimuli": 5534,
      "aug": 5535,
      "push": 5536,
      "Ġur": 5537,
      "Ġenc": 5538,
      "perform": 5539,
      "Ġmanages": 5540,
      "Ġlower": 5541,
      "ĠShould": 5542,
      "Ġche": 5543,
      "ĠResponse": 5544,
      "Ġloss": 5545,
      "endation": 5546,
      "Ġsets": 5547,
      "Ġdescribing": 5548,
      "Ġselected": 5549,
      "relevant": 5550,
      "Ġrespect": 5551,
      "Ġcreation": 5552,
      "cell": 5553,
      "de": 5554,
      "itagain": 5555,
      "iditagain": 5556,
      "Ġnecessary": 5557,
      "ĠDevelopment": 5558,
      "ĠHard": 5559,
      "Ġheart": 5560,
      "CHI": 5561,
      "sididitagain": 5562,
      "Ġregard": 5563,
      "Ġiteration": 5564,
      "fol": 5565,
      "inate": 5566,
      "unity": 5567,
      "ĠMore": 5568,
      "ĠPart": 5569,
      "Ġapplication": 5570,
      "Ġsecrets": 5571,
      "Ġtechn": 5572,
      "ĠSteps": 5573,
      "Ġsat": 5574,
      "ĠOAuth": 5575,
      "Ġmaps": 5576,
      "Comp": 5577,
      "Ġpaste": 5578,
      "}.": 5579,
      "available": 5580,
      "Ġdirectories": 5581,
      "ĠAnthropic": 5582,
      "structured": 5583,
      "Ġvolume": 5584,
      "route": 5585,
      "ishing": 5586,
      "Ġ120": 5587,
      "ĠExecut": 5588,
      "Ġdefines": 5589,
      "Ġcompare": 5590,
      "DER": 5591,
      "ĠLogic": 5592,
      "OUR": 5593,
      "Ġtouch": 5594,
      "Code": 5595,
      "First": 5596,
      "Gener": 5597,
      "facing": 5598,
      "Ġ================================================================": 5599,
      "orrow": 5600,
      "Ġpy": 5601,
      "vern": 5602,
      "Example": 5603,
      "udcc": 5604,
      "override": 5605,
      "ED": 5606,
      "Ġbre": 5607,
      "voice": 5608,
      "ChatGPT": 5609,
      "?\\\"": 5610,
      "Ġchi": 5611,
      "entially": 5612,
      "Ġnested": 5613,
      "Ġgiven": 5614,
      "ĠMac": 5615,
      "Ġattach": 5616,
      "Ġtyping": 5617,
      "Ġpermission": 5618,
      "LU": 5619,
      "fit": 5620,
      "pag": 5621,
      "ĠToken": 5622,
      "rief": 5623,
      "ĠEvent": 5624,
      "TER": 5625,
      "Ġ@": 5626,
      "Ġsample": 5627,
      "ild": 5628,
      "Ġforget": 5629,
      "through": 5630,
      "intent": 5631,
      "ĠOK": 5632,
      "Ġinstalled": 5633,
      "Ġdynamically": 5634,
      "ĠAb": 5635,
      "sha": 5636,
      "license": 5637,
      "Running": 5638,
      "Ġvisualization": 5639,
      "Co": 5640,
      "sources": 5641,
      "Ġwin": 5642,
      "ĠPM": 5643,
      "Ġ{\\\"": 5644,
      "Ġ};": 5645,
      "ðŁĶ": 5646,
      "Ġwants": 5647,
      "Ġworth": 5648,
      "integrity": 5649,
      "hone": 5650,
      "sk": 5651,
      "ĠĠĠĠĠĠĠĠĠĠĠĠĠĠĠĠĠĠĠĠĠĠĠĠĠĠĠĠĠĠĠ": 5652,
      "Ġcompat": 5653,
      "settings": 5654,
      "does": 5655,
      "Ġtransparent": 5656,
      "!\",": 5657,
      "PO": 5658,
      "az": 5659,
      "nSo": 5660,
      "Ġsyn": 5661,
      "Ġpending": 5662,
      "aste": 5663,
      "Ġcompact": 5664,
      "Ġcleanly": 5665,
      "ifying": 5666,
      "Ġremoved": 5667,
      "Ġholds": 5668,
      "arrative": 5669,
      "IC": 5670,
      "ĠSafety": 5671,
      "que": 5672,
      "ĠFind": 5673,
      "ĠEm": 5674,
      "script": 5675,
      "Ġhum": 5676,
      "Ġrange": 5677,
      "Ġyours": 5678,
      "ĠProv": 5679,
      "oopsididitagain": 5680,
      "Lear": 5681,
      "oh": 5682,
      "Ġlate": 5683,
      "Ġlittle": 5684,
      "ortex": 5685,
      "andard": 5686,
      "============": 5687,
      "ocial": 5688,
      "brid": 5689,
      "ĠStructured": 5690,
      "].": 5691,
      "pdf": 5692,
      "Ġded": 5693,
      "Ġleast": 5694,
      "Ġrefresh": 5695,
      "Ġpromot": 5696,
      "ixed": 5697,
      "Ġcounts": 5698,
      "(--": 5699,
      "TS": 5700,
      "ffect": 5701,
      "nT": 5702,
      "raw": 5703,
      "leg": 5704,
      "ĠSu": 5705,
      "ĠValue": 5706,
      "Ġrespons": 5707,
      "exists": 5708,
      "ĠAutom": 5709,
      "folio": 5710,
      ":*": 5711,
      "sum": 5712,
      "Ġstud": 5713,
      "ĠAction": 5714,
      "Ġsecurity": 5715,
      "inue": 5716,
      "uroscience": 5717,
      "Br": 5718,
      "Right": 5719,
      "onical": 5720,
      "ĠUses": 5721,
      "agn": 5722,
      "Ġcompletely": 5723,
      "TML": 5724,
      "Ġwake": 5725,
      "Ġpanel": 5726,
      "ropy": 5727,
      "ĠTime": 5728,
      "Ġvideo": 5729,
      "ĠRight": 5730,
      "ĠFramework": 5731,
      "Ġimmediate": 5732,
      "Ġappears": 5733,
      "Ġpieces": 5734,
      "406": 5735,
      "Ġtreat": 5736,
      "ĠMay": 5737,
      "Ġgrad": 5738,
      "anged": 5739,
      "Ġassist": 5740,
      "ĠEven": 5741,
      "Ġbenef": 5742,
      "aios": 5743,
      "nimport": 5744,
      "essment": 5745,
      "Ġplug": 5746,
      "Ġcheckpoint": 5747,
      "Ġ70": 5748,
      "Ġdataset": 5749,
      "70": 5750,
      "aiting": 5751,
      "late": 5752,
      "world": 5753,
      "ustry": 5754,
      "ĠDiscord": 5755,
      "Ind": 5756,
      "ology": 5757,
      "})": 5758,
      "ids": 5759,
      "Ġhalluc": 5760,
      "Ġ1000": 5761,
      "Ġassert": 5762,
      "ĠComplete": 5763,
      "Ġescal": 5764,
      "Ġach": 5765,
      "ancial": 5766,
      "Ġpure": 5767,
      "ĠDifferent": 5768,
      "cloud": 5769,
      "Ġweighted": 5770,
      "Ġsolving": 5771,
      "Ġcompleted": 5772,
      "Bottom": 5773,
      "ales": 5774,
      "tation": 5775,
      "Ġacts": 5776,
      "Ġeveryone": 5777,
      "OpenAI": 5778,
      "ĠInstall": 5779,
      "pending": 5780,
      "Ġ\\\\": 5781,
      "pring": 5782,
      "Ġweeks": 5783,
      "aving": 5784,
      "Ġmanual": 5785,
      "âĶĢâĶĢâĶĢâĶĢâĶĢâĶĢâĶĢâĶĢâĶĢâĶĢâĶĢâĶĢâĶĢâĶĢâĶĢâĶĢâĶĢâĶĢâĶĢâĶĢâĶĢâĶĢâĶĢâĶĢâĶĢâĶĢâĶĢâĶĢâĶĢâĶĢâĶĢâĶĢâĶĢâĶĢâĶĢâĶĢâĶĢâĶĢâĶĢâĶĢâĶĢâĶĢâĶĢâĶĢâĶĢâĶĢâĶĢâĶĢâĶĢâĶĢâĶĢâĶĢâĶĢâĶĢâĶĢâĶĢâĶĢâĶĢâĶĢâĶĢâĶĢâĶĢâĶĢâĶĢ": 5786,
      "complete": 5787,
      "Ġcharacter": 5788,
      "abe": 5789,
      "ĠLine": 5790,
      "Ġasks": 5791,
      "Ġmassive": 5792,
      "En": 5793,
      "Source": 5794,
      "dim": 5795,
      "sg": 5796,
      "Ġnavig": 5797,
      "Ġenable": 5798,
      "ĠModular": 5799,
      "aves": 5800,
      "Ġroles": 5801,
      "Ġsolved": 5802,
      "Ġregister": 5803,
      "Ġearlier": 5804,
      "Ġhttps": 5805,
      "ior": 5806,
      "Ġregex": 5807,
      "change": 5808,
      "ants": 5809,
      "Ġprediction": 5810,
      "Ġcollapse": 5811,
      "-/": 5812,
      "dantic": 5813,
      "Ġdaily": 5814,
      "ORS": 5815,
      "ffic": 5816,
      "Ġsymb": 5817,
      "Ġpermanent": 5818,
      "List": 5819,
      "Wr": 5820,
      "oot": 5821,
      "page": 5822,
      "Ġstory": 5823,
      "Ġ});": 5824,
      "...\"": 5825,
      "elligent": 5826,
      "51": 5827,
      "hot": 5828,
      "~~": 5829,
      "const": 5830,
      "Ġevolution": 5831,
      "Ġprevent": 5832,
      "seconds": 5833,
      "Ġmarketplace": 5834,
      "');": 5835,
      "High": 5836,
      "aa": 5837,
      "rel": 5838,
      "ening": 5839,
      "hemat": 5840,
      "ancy": 5841,
      "enue": 5842,
      "Ġoperation": 5843,
      "(\\": 5844,
      "VER": 5845,
      "built": 5846,
      "Ġrepl": 5847,
      "ifier": 5848,
      "ĠGmail": 5849,
      "Ġ${": 5850,
      "ĠInformation": 5851,
      "crete": 5852,
      "Project": 5853,
      "Ġfired": 5854,
      "ĠMedium": 5855,
      "Ġsmarter": 5856,
      "`**": 5857,
      "friend": 5858,
      "ĠFound": 5859,
      "ifications": 5860,
      "Ġplanning": 5861,
      "elta": 5862,
      "Purpose": 5863,
      "Sc": 5864,
      "Ġmoney": 5865,
      "asy": 5866,
      "ĠEns": 5867,
      "Ġloading": 5868,
      "CTION": 5869,
      "Ġfinetune": 5870,
      "/-/": 5871,
      "block": 5872,
      "alog": 5873,
      "Ġlaptop": 5874,
      "rupt": 5875,
      "ĠFeeds": 5876,
      "Ġmoved": 5877,
      "Select": 5878,
      "ademic": 5879,
      "Great": 5880,
      "tgz": 5881,
      "seed": 5882,
      "Ġ*\\": 5883,
      "Ġauthent": 5884,
      "npmjs": 5885,
      "Ġdiagram": 5886,
      "dat": 5887,
      "arger": 5888,
      "==\",": 5889,
      "ĠHuman": 5890,
      "Ġintegrity": 5891,
      "Ġhardcoded": 5892,
      "Ġdependency": 5893,
      "Out": 5894,
      "Xiv": 5895,
      "err": 5896,
      "Ġdangerous": 5897,
      "Ġgate": 5898,
      "ĠCould": 5899,
      "Ġmyself": 5900,
      "ĠLO": 5901,
      "Ġspot": 5902,
      "Ġ[],": 5903,
      "Ġextra": 5904,
      "Ġcurious": 5905,
      "autif": 5906,
      "Dict": 5907,
      "Path": 5908,
      "}:": 5909,
      "ader": 5910,
      "ĠTry": 5911,
      "ĠSAT": 5912,
      "acker": 5913,
      "There": 5914,
      "Update": 5915,
      "match": 5916,
      "Ġ60": 5917,
      "rece": 5918,
      "ĠMode": 5919,
      "comput": 5920,
      "Ġchecklist": 5921,
      "ĠInstead": 5922,
      "Ġconcise": 5923,
      "faces": 5924,
      "Ġep": 5925,
      "enance": 5926,
      "alignment": 5927,
      "Ġfrag": 5928,
      "Ġrelative": 5929,
      "remember": 5930,
      "selected": 5931,
      "examples": 5932,
      "Ġpressure": 5933,
      "Ġicon": 5934,
      "Ġbal": 5935,
      "ĠError": 5936,
      "pliance": 5937,
      "asoning": 5938,
      "Once": 5939,
      "checkpoint": 5940,
      "Ġmigration": 5941,
      "Ver": 5942,
      "hitepaper": 5943,
      "Ġmorning": 5944,
      "ĠRev": 5945,
      "Ġ''": 5946,
      "rowth": 5947,
      "Ġplatforms": 5948,
      "72": 5949,
      "Linking": 5950,
      "break": 5951,
      "ĠIss": 5952,
      "consolidation": 5953,
      "Ġserve": 5954,
      "Ġtranscript": 5955,
      "Ġresearchers": 5956,
      "Ġinstruction": 5957,
      "ENTITY": 5958,
      "Dec": 5959,
      "ĠĠĠĠĠĠĠĠĠĠĠĠĠĠĠĠĠĠĠĠĠĠĠĠĠĠĠĠ": 5960,
      "Ġremain": 5961,
      "Ġloads": 5962,
      "ï¸ıâ": 5963,
      "Ġplaceholder": 5964,
      "Demo": 5965,
      "ĠPR": 5966,
      "ĠHost": 5967,
      "Ġbroken": 5968,
      "Ġhaving": 5969,
      "Dashboard": 5970,
      "ĥ£": 5971,
      "any": 5972,
      "Ġborder": 5973,
      "Ġneural": 5974,
      "Ġmoving": 5975,
      "Ġconcern": 5976,
      "Ġcontradiction": 5977,
      "ï¸ıâĥ£": 5978,
      "Show": 5979,
      "imes": 5980,
      "apsed": 5981,
      "try": 5982,
      "sole": 5983,
      "Ġevaluation": 5984,
      "?\\\"\\": 5985,
      "Ġ!": 5986,
      "Ġ})": 5987,
      "tuned": 5988,
      "Ġconflicts": 5989,
      "ĠGravity": 5990,
      "ĠGenerate": 5991,
      "Ġgrounded": 5992,
      "ĠðŁĮĢ": 5993,
      "PATH": 5994,
      "Ent": 5995,
      "she": 5996,
      "Ġmarg": 5997,
      "Ġbits": 5998,
      "Ġanyone": 5999,
      "Ġnumbers": 6000,
      "length": 6001,
      "Dis": 6002,
      "Ġdefinition": 6003,
      "Ġwasn": 6004,
      "msg": 6005,
      "Ġregardless": 6006,
      "Ġill": 6007,
      "Ġdest": 6008,
      "Ġrat": 6009,
      "ĠFine": 6010,
      "udge": 6011,
      "ourn": 6012,
      "Ġkeyword": 6013,
      "Ġtimeout": 6014,
      "nWould": 6015,
      "Ġvisibility": 6016,
      "Ġfollows": 6017,
      "Change": 6018,
      "Ġautonomous": 6019,
      "\"},": 6020,
      "Summary": 6021,
      "Ġec": 6022,
      "replace": 6023,
      "arcus": 6024,
      "Ġways": 6025,
      "ĠLow": 6026,
      "Ġtracks": 6027,
      "Ġembedded": 6028,
      "cols": 6029,
      "nBut": 6030,
      "Ġredu": 6031,
      "ĠTe": 6032,
      "Ġguid": 6033,
      "Ġrequirements": 6034,
      "Ġhttp": 6035,
      "Ġpolicy": 6036,
      "2000": 6037,
      "?:": 6038,
      "Using": 6039,
      "polaris": 6040,
      "Ġ)}": 6041,
      "ĠTerm": 6042,
      "Ġ119": 6043,
      "Ġactivate": 6044,
      "Ġshif": 6045,
      "Ġphysics": 6046,
      "item": 6047,
      "Ġsn": 6048,
      "Ġcontact": 6049,
      "ĠVM": 6050,
      "Ġverb": 6051,
      "Ollama": 6052,
      "fidence": 6053,
      "elaris": 6054,
      "Ġreset": 6055,
      "ensor": 6056,
      "echo": 6057,
      "ĠSee": 6058,
      "decision": 6059,
      "ybrid": 6060,
      "Ġcas": 6061,
      "ĠTim": 6062,
      "ayers": 6063,
      "Ġexecutor": 6064,
      "Ġemphas": 6065,
      "Replace": 6066,
      "Ġprofessional": 6067,
      "Task": 6068,
      "YS": 6069,
      "Ġfill": 6070,
      "ĠSignal": 6071,
      "lying": 6072,
      "urt": 6073,
      "eved": 6074,
      "Ġadds": 6075,
      "Ġrecall": 6076,
      "Ġintention": 6077,
      "Ġignore": 6078,
      "Ġtab": 6079,
      "Ġdate": 6080,
      "elves": 6081,
      "Ġevidence": 6082,
      "Ġbeats": 6083,
      "trained": 6084,
      "clean": 6085,
      "Ġmonthly": 6086,
      "Ġevolve": 6087,
      "CHITE": 6088,
      "/@": 6089,
      "olean": 6090,
      "Ġtru": 6091,
      "itial": 6092,
      "Ġ\"\")": 6093,
      "Ġliving": 6094,
      "Ġboard": 6095,
      "Ġboundary": 6096,
      "CHITECTURE": 6097,
      "introspection": 6098,
      "ĠJSONL": 6099,
      "loads": 6100,
      "commit": 6101,
      "Ġartif": 6102,
      "RY": 6103,
      "ULL": 6104,
      "Ġresist": 6105,
      "ĠTO": 6106,
      "2011": 6107,
      "Ġkill": 6108,
      "Ġframe": 6109,
      "Ġformatting": 6110,
      "Ġblue": 6111,
      "Ġcontribution": 6112,
      "ACK": 6113,
      "ĠDocumentation": 6114,
      "Ġalgorithm": 6115,
      "bt": 6116,
      "Ġcandid": 6117,
      "Ġrend": 6118,
      "202": 6119,
      "graph": 6120,
      "Ġreflects": 6121,
      "ĠString": 6122,
      "ĠMarket": 6123,
      "qlite": 6124,
      "ĠAnalysis": 6125,
      "Ġ============================================================================": 6126,
      "iation": 6127,
      "null": 6128,
      "Ġmon": 6129,
      "Ġreject": 6130,
      "Ġland": 6131,
      "ĠDO": 6132,
      "Ġcontain": 6133,
      "ipp": 6134,
      "Ġrecogn": 6135,
      "Ġcompany": 6136,
      "ĠRecomm": 6137,
      "existing": 6138,
      "Ġessentially": 6139,
      "oriz": 6140,
      "arant": 6141,
      "iso": 6142,
      "Ġbuy": 6143,
      "Ġ()": 6144,
      "ĠWhere": 6145,
      "even": 6146,
      "Ġ[\\\"": 6147,
      "Ġchains": 6148,
      "Ġchecking": 6149,
      "Ġversions": 6150,
      "Ġmaintaining": 6151,
      "Ġinteresting": 6152,
      "PRO": 6153,
      "Who": 6154,
      "cr": 6155,
      "ĠSchema": 6156,
      "Ġisinstance": 6157,
      "Ġdecides": 6158,
      "ibly": 6159,
      "erministic": 6160,
      "One": 6161,
      "Ġnaturally": 6162,
      "ROMPT": 6163,
      "ĠCI": 6164,
      "ĠEnd": 6165,
      "Ġshop": 6166,
      "plan": 6167,
      "Ġhelpful": 6168,
      "173": 6169,
      "Ġcontrols": 6170,
      "Ġoperational": 6171,
      "150": 6172,
      "Set": 6173,
      "cognitive": 6174,
      "wil": 6175,
      "Ġcru": 6176,
      "alyst": 6177,
      "ĠPoint": 6178,
      "ĠRequ": 6179,
      "Ġtested": 6180,
      "flat": 6181,
      "Real": 6182,
      "Ġbaseline": 6183,
      "90": 6184,
      "False": 6185,
      "iers": 6186,
      "Ġgl": 6187,
      "threshold": 6188,
      "kept": 6189,
      "obile": 6190,
      "|------|--------": 6191,
      "|--------------------": 6192,
      "mut": 6193,
      "when": 6194,
      "ĠLanguage": 6195,
      "REATE": 6196,
      "embedding": 6197,
      "Ġmanager": 6198,
      "Ġhandler": 6199,
      "meta": 6200,
      "Ġprobability": 6201,
      "Ġzip": 6202,
      "BaseModel": 6203,
      "|\\": 6204,
      "Ġ```\\": 6205,
      "ĠLaunch": 6206,
      "ĠOper": 6207,
      "Ġgeneric": 6208,
      "Ġnews": 6209,
      "Ġremains": 6210,
      "Ġbegin": 6211,
      "trust": 6212,
      "Ġmajor": 6213,
      "ĠSource": 6214,
      "ĠSAE": 6215,
      "../": 6216,
      "ributed": 6217,
      "Ġclaims": 6218,
      "Ġcertain": 6219,
      "By": 6220,
      "Prompt": 6221,
      "Ġfits": 6222,
      "Ġ`\"": 6223,
      "Ġbehavioral": 6224,
      "2185": 6225,
      "ialog": 6226,
      "Ġplain": 6227,
      "machineID": 6228,
      "ĠĠĠĠĠĠĠĠĠĠĠĠĠĠĠĠĠĠĠĠĠĠĠĠĠĠĠĠĠĠĠĠĠĠĠĠĠĠĠĠĠĠĠĠĠĠĠĠĠĠĠĠĠĠĠĠĠĠĠĠĠĠĠĠ": 6229,
      "Ġheader": 6230,
      "ThreadCore": 6231,
      "Ġbasically": 6232,
      "Ġ119406": 6233,
      "!!": 6234,
      "Ġpsycho": 6235,
      "Ġtodo": 6236,
      "amed": 6237,
      "ĠSolution": 6238,
      "ĠCustom": 6239,
      "Ġenables": 6240,
      "Ġcontents": 6241,
      "Ġdocumented": 6242,
      "ĠLogs": 6243,
      "completions": 6244,
      "cooccurrence": 6245,
      "Look": 6246,
      "css": 6247,
      "Ġstimulus": 6248,
      "Ġtransition": 6249,
      "hematical": 6250,
      "wilio": 6251,
      "Jan": 6252,
      "find": 6253,
      "optim": 6254,
      "ĠON": 6255,
      "Ġdisk": 6256,
      "ĠQwen": 6257,
      "ĠVision": 6258,
      "Ġremote": 6259,
      "adding": 6260,
      "ĠMissing": 6261,
      "gmail": 6262,
      "Ġ:::": 6263,
      "Ġhistor": 6264,
      "ĠReality": 6265,
      "Ġoffer": 6266,
      "STATE": 6267,
      "resolve": 6268,
      "Auto": 6269,
      "vs": 6270,
      "Ġdiction": 6271,
      "ifiable": 6272,
      "Ġanymore": 6273,
      "Ġedits": 6274,
      "provider": 6275,
      "Ġcontributors": 6276,
      "priority": 6277,
      "ANGE": 6278,
      ">=": 6279,
      "hance": 6280,
      "omew": 6281,
      "interval": 6282,
      "Ġdeleted": 6283,
      "ĠBrain": 6284,
      "Ġduplicate": 6285,
      "nD": 6286,
      "na": 6287,
      "chron": 6288,
      "ĠSync": 6289,
      "ists": 6290,
      "Ġvirtual": 6291,
      "epend": 6292,
      "html": 6293,
      "Ġ23": 6294,
      "ĠExport": 6295,
      "Ġadversarial": 6296,
      "Ġservers": 6297,
      "markdown": 6298,
      "Trigger": 6299,
      "Ġdetermine": 6300,
      "Ġautonomy": 6301,
      "Event": 6302,
      "ber": 6303,
      "ethics": 6304,
      "igm": 6305,
      "enshot": 6306,
      "READ": 6307,
      "ĠWorkspace": 6308,
      "Ġpulls": 6309,
      "Ġsuccessfully": 6310,
      "Ġprototype": 6311,
      "Ġwait": 6312,
      "ĠTechnical": 6313,
      "ĠSE": 6314,
      "ulse": 6315,
      "Ġimpact": 6316,
      "These": 6317,
      "Ġwebsite": 6318,
      "mediate": 6319,
      "Attention": 6320,
      "DU": 6321,
      "ĠNotes": 6322,
      "Ġcalendar": 6323,
      "Ġbreath": 6324,
      "(`": 6325,
      "`.\\": 6326,
      "ĠTrust": 6327,
      "Ġboost": 6328,
      "created": 6329,
      "Ġmerge": 6330,
      "VI": 6331,
      "tability": 6332,
      "internal": 6333,
      "Ġcit": 6334,
      "ising": 6335,
      "Ġsetting": 6336,
      "Ġmetaph": 6337,
      "Ġmarketing": 6338,
      "ĠComput": 6339,
      "ĠWebSocket": 6340,
      "Ġengagement": 6341,
      "95": 6342,
      "dumps": 6343,
      "pip": 6344,
      "Ġitem": 6345,
      "ĠClear": 6346,
      "ĠReady": 6347,
      "SELECT": 6348,
      "65": 6349,
      "res": 6350,
      "iments": 6351,
      "Ġ['": 6352,
      "Ġthresholds": 6353,
      "ypothesis": 6354,
      "selves": 6355,
      "Ġsleep": 6356,
      "Ġrebuild": 6357,
      "platform": 6358,
      "ensible": 6359,
      "Ġedges": 6360,
      "Ġstructurally": 6361,
      "Ret": 6362,
      "auto": 6363,
      "Ġmask": 6364,
      "Ġrepro": 6365,
      "ĠSub": 6366,
      "see": 6367,
      "rice": 6368,
      "Ġcomment": 6369,
      "Ġclust": 6370,
      "Ġgenerating": 6371,
      "framework": 6372,
      "Ġdescribed": 6373,
      "Ġbelieve": 6374,
      "folder": 6375,
      "yeah": 6376,
      "ercial": 6377,
      "improv": 6378,
      "ĠMaint": 6379,
      "idebar": 6380,
      "ĠConn": 6381,
      "Ġincluded": 6382,
      "Ġlimited": 6383,
      "OLD": 6384,
      "ĠRAM": 6385,
      "aught": 6386,
      "(__": 6387,
      "mo": 6388,
      "âĸ": 6389,
      "Ġcor": 6390,
      "Ġround": 6391,
      "ĠFact": 6392,
      "ĠHTML": 6393,
      "|------------------------": 6394,
      "],\\": 6395,
      "indows": 6396,
      "Ġrecursion": 6397,
      "Ġcoding": 6398,
      "Ġmill": 6399,
      "except": 6400,
      "ĠPr": 6401,
      "Ġobjects": 6402,
      "Ġpractical": 6403,
      "):**\\": 6404,
      "gen": 6405,
      "gency": 6406,
      "ĉĉ": 6407,
      "Ġsaw": 6408,
      "Ġbar": 6409,
      "Ġgen": 6410,
      "agents": 6411,
      "Ġsolver": 6412,
      "connect": 6413,
      "````\\": 6414,
      "ĠSettings": 6415,
      "install": 6416,
      "349": 6417,
      "found": 6418,
      "{\\\"": 6419,
      "Ġ({": 6420,
      "Ġgrace": 6421,
      "feeds": 6422,
      "Ġverification": 6423,
      "ersion": 6424,
      "Ġvocab": 6425,
      "Ġschemas": 6426,
      "Ġsends": 6427,
      "Ġdefaults": 6428,
      "ensional": 6429,
      "Import": 6430,
      "news": 6431,
      "Ġmonitoring": 6432,
      "ĠINTE": 6433,
      "ĠWithout": 6434,
      "ĠðŁİ¯": 6435,
      "ANGELOG": 6436,
      "$$": 6437,
      "Met": 6438,
      "Panel": 6439,
      "root": 6440,
      "Ġlif": 6441,
      "icens": 6442,
      "ĠBas": 6443,
      "chitectural": 6444,
      "AIOS": 6445,
      "Ġelaris": 6446,
      "Ġregular": 6447,
      "Ġeffectively": 6448,
      "reasoning": 6449,
      "Ġindependently": 6450,
      "Ġchild": 6451,
      "mart": 6452,
      "nF": 6453,
      "engine": 6454,
      "Ġreach": 6455,
      "Ġscenar": 6456,
      "Ġserious": 6457,
      "Ġprefers": 6458,
      "WS": 6459,
      "correct": 6460,
      "issu": 6461,
      "Ġhour": 6462,
      "ĠPower": 6463,
      "ĠHierarchical": 6464,
      "ĠThink": 6465,
      "Ġinstances": 6466,
      "\">{": 6467,
      "Ġtransparency": 6468,
      "Time": 6469,
      "dist": 6470,
      "herent": 6471,
      "Ġgithub": 6472,
      "vere": 6473,
      "Ġcrash": 6474,
      "without": 6475,
      "Ġorganization": 6476,
      "Updated": 6477,
      "NAME": 6478,
      "delete": 6479,
      "ties": 6480,
      "ycle": 6481,
      "Ġstress": 6482,
      "Conn": 6483,
      "Ġmanif": 6484,
      "ometimes": 6485,
      "Ġphase": 6486,
      "Ġconfigured": 6487,
      "started": 6488,
      "Ġflows": 6489,
      "Ġhumans": 6490,
      "Text": 6491,
      "ee": 6492,
      "Ġmicro": 6493,
      "Ġlarger": 6494,
      "ĠSingle": 6495,
      "tty": 6496,
      "Cognitive": 6497,
      "_{": 6498,
      "}{": 6499,
      "ĠTABLE": 6500,
      "Ġenforcement": 6501,
      "Ġcleanup": 6502,
      "consciousness": 6503,
      "202601": 6504,
      "Ġsys": 6505,
      "Ġdetermines": 6506,
      "Ġabstract": 6507,
      "GER": 6508,
      "round": 6509,
      "Ġyeah": 6510,
      "Ġord": 6511,
      "Ġcleaner": 6512,
      "Ġrecords": 6513,
      "ĠLinkingCore": 6514,
      "Ġaligns": 6515,
      "Ġlabels": 6516,
      "Ġsimpler": 6517,
      "sage": 6518,
      "hield": 6519,
      "Ġpatch": 6520,
      "Ġanalytics": 6521,
      "Ġproven": 6522,
      "Ġdraf": 6523,
      "React": 6524,
      "Ġconsistency": 6525,
      "Ġsafely": 6526,
      ".)\\": 6527,
      "View": 6528,
      "ich": 6529,
      "uary": 6530,
      "Â²": 6531,
      "reg": 6532,
      "Ġcut": 6533,
      "Ġwaiting": 6534,
      "forces": 6535,
      "Ġrare": 6536,
      "Ġability": 6537,
      "Ġinterval": 6538,
      "Ġrouted": 6539,
      "Ġlegacy": 6540,
      "={()": 6541,
      "ĠðŁĶ¹": 6542,
      "pressed": 6543,
      "|-------": 6544,
      "autiful": 6545,
      "Token": 6546,
      "cles": 6547,
      "Ġ**âĢľ": 6548,
      "ĠCost": 6549,
      "comes": 6550,
      "Ġsolo": 6551,
      "Ġactivated": 6552,
      "Ġediting": 6553,
      "ĠExtract": 6554,
      "Ġintegrate": 6555,
      "Created": 6556,
      "Ġiterate": 6557,
      "ĠSetup": 6558,
      "Ġsomew": 6559,
      "char": 6560,
      "ĠWould": 6561,
      "ĠPersistent": 6562,
      "ĠDelete": 6563,
      "Ġapplied": 6564,
      "Ġsimply": 6565,
      "ADMAP": 6566,
      "ĠRuns": 6567,
      "Ġpersona": 6568,
      "Ġtruly": 6569,
      "?)": 6570,
      "CK": 6571,
      "flex": 6572,
      "ĠUnder": 6573,
      "ĠFacts": 6574,
      "ĠOp": 6575,
      "Ġperiod": 6576,
      "defined": 6577,
      "ĠClass": 6578,
      "riority": 6579,
      "entials": 6580,
      "Ġdebug": 6581,
      "Ġmechanisms": 6582,
      "Ġmargin": 6583,
      "5000": 6584,
      "Fact": 6585,
      "Ġ25": 6586,
      "imum": 6587,
      "Ġleave": 6588,
      "Ġtrail": 6589,
      "running": 6590,
      "ailability": 6591,
      "Ġmedia": 6592,
      "Ġmsg": 6593,
      "Ġlose": 6594,
      "ĠFace": 6595,
      "Concept": 6596,
      "ĠProfiles": 6597,
      "Ġmoves": 6598,
      "NS": 6599,
      "ĠTech": 6600,
      "ĠSmall": 6601,
      "\":\"": 6602,
      "ĠProm": 6603,
      "Ġusually": 6604,
      "Ġscience": 6605,
      "Ġpresence": 6606,
      "Ġteach": 6607,
      "chedule": 6608,
      "Ġauditable": 6609,
      "Ġmirrors": 6610,
      "case": 6611,
      "aken": 6612,
      "Ġclone": 6613,
      "Ġpassing": 6614,
      "RAG": 6615,
      "ĠRole": 6616,
      "Man": 6617,
      "WT": 6618,
      "research": 6619,
      "Ġclo": 6620,
      "Ġactor": 6621,
      "Ġstrings": 6622,
      "Ġ},\\": 6623,
      "\"):": 6624,
      "Ġtokenizer": 6625,
      "boarding": 6626,
      "Ġgrounding": 6627,
      "expected": 6628,
      "Recomm": 6629,
      "nclass": 6630,
      "hest": 6631,
      "Ġbug": 6632,
      "Ġ\"\",": 6633,
      "Ġgaps": 6634,
      "hyd": 6635,
      "outes": 6636,
      "Ġâļ¡": 6637,
      "manager": 6638,
      "Ġscored": 6639,
      "ĠGood": 6640,
      "Mark": 6641,
      "orter": 6642,
      "Ġmag": 6643,
      "ĠWhich": 6644,
      "ĠPublic": 6645,
      "ĠLlama": 6646,
      "ĠNULL": 6647,
      "ĠDashboard": 6648,
      "Ġshar": 6649,
      "Ġkernel": 6650,
      "completion": 6651,
      "ĠShort": 6652,
      "icrosoft": 6653,
      "Ġchallenge": 6654,
      "\"`": 6655,
      "3000": 6656,
      "DO": 6657,
      "wise": 6658,
      "Ġtier": 6659,
      "former": 6660,
      "ĠInsight": 6661,
      "Ġ-->": 6662,
      "ĠSystems": 6663,
      "Weight": 6664,
      "rypto": 6665,
      "convos": 6666,
      "Multi": 6667,
      "budget": 6668,
      "ptim": 6669,
      "pril": 6670,
      "ĠFlex": 6671,
      "ĠDoc": 6672,
      "rows": 6673,
      "calls": 6674,
      "Ġaccuracy": 6675,
      "Sec": 6676,
      "Torch": 6677,
      "zip": 6678,
      "istical": 6679,
      "ĠBudget": 6680,
      "orship": 6681,
      "ROOT": 6682,
      "Ġexpert": 6683,
      "Ġwatching": 6684,
      "Ġcapture": 6685,
      "Loading": 6686,
      "Hard": 6687,
      "eration": 6688,
      "readable": 6689,
      "ĠCap": 6690,
      "Ġ}}>": 6691,
      "Ġbuilder": 6692,
      "!--": 6693,
      "consolid": 6694,
      "),\\": 6695,
      "END": 6696,
      "Ġboolean": 6697,
      "Ġconversational": 6698,
      "ĠAssistant": 6699,
      "Ġfiltered": 6700,
      "Ġfinally": 6701,
      ")?": 6702,
      "Ġpadding": 6703,
      "ĠHave": 6704,
      "Ġchoices": 6705,
      "Claude": 6706,
      "Ġlength": 6707,
      "Ġschedul": 6708,
      "Ġestabl": 6709,
      "PROMPT": 6710,
      "Ġpolaris": 6711,
      "Ġder": 6712,
      "ĠPhi": 6713,
      "Ġextension": 6714,
      "Ġaccessible": 6715,
      "Ġproves": 6716,
      "ĠFormat": 6717,
      "ĠComponent": 6718,
      "ĠAsk": 6719,
      "CLU": 6720,
      "Which": 6721,
      "Ġahead": 6722,
      "look": 6723,
      "Ġcondition": 6724,
      "ĠWeek": 6725,
      "position": 6726,
      "Ġ1180": 6727,
      "Ġperfectly": 6728,
      "goal": 6729,
      "args": 6730,
      "Ġcalcul": 6731,
      "reach": 6732,
      "Ġsum": 6733,
      "Ġpapers": 6734,
      "Ġbypass": 6735,
      "Ġnarrative": 6736,
      "rieval": 6737,
      "Ġshutdown": 6738,
      "Ġ~$": 6739,
      "Ġthemselves": 6740,
      "eddings": 6741,
      "ĠAssessment": 6742,
      "Ġarchived": 6743,
      "detect": 6744,
      "Ġsyntax": 6745,
      "Ġscratch": 6746,
      "Ġu": 6747,
      "Ġdro": 6748,
      "ĠPrivacy": 6749,
      "Ġinteract": 6750,
      "Ġllama": 6751,
      "auses": 6752,
      "Ġtight": 6753,
      "ĠCal": 6754,
      "Ġdoctrine": 6755,
      "ĠNE": 6756,
      "Ġimag": 6757,
      "Ġvalidated": 6758,
      "OLARIS": 6759,
      "Ġeasier": 6760,
      "Ġmeaningful": 6761,
      "Ġrepository": 6762,
      "URRE": 6763,
      "UM": 6764,
      "Ġton": 6765,
      "ĠPeople": 6766,
      "Ġlot": 6767,
      "ags": 6768,
      "osystem": 6769,
      "Ġque": 6770,
      "cursor": 6771,
      "Ġbreaking": 6772,
      "Request": 6773,
      "Ġmentions": 6774,
      "AMP": 6775,
      "Download": 6776,
      "multi": 6777,
      "\",\\": 6778,
      "Ġ[\\": 6779,
      "2169": 6780,
      "coming": 6781,
      "geometry": 6782,
      "Ġbenchmarks": 6783,
      "Ġambiguous": 6784,
      "IST": 6785,
      "copilot": 6786,
      "Ġtemplates": 6787,
      "unc": 6788,
      "Ġarray": 6789,
      "orporate": 6790,
      "Ġsomewhere": 6791,
      "Ġ118089": 6792,
      "ises": 6793,
      "Ġbit": 6794,
      "Ġupdating": 6795,
      "Ġalmost": 6796,
      "Ġwanted": 6797,
      "aws": 6798,
      "ĠKEY": 6799,
      "Ġsummarization": 6800,
      "ĠIntelligence": 6801,
      "Ġbelow": 6802,
      "*.\\": 6803,
      "Ġsandbox": 6804,
      "Ġ($": 6805,
      "Ġ**$": 6806,
      "ĠAudit": 6807,
      "ĠCoffee": 6808,
      "uper": 6809,
      "Ġscoped": 6810,
      "params": 6811,
      "ĠHowever": 6812,
      "Ġdimensions": 6813,
      "ĠRemove": 6814,
      "cast": 6815,
      "erial": 6816,
      "already": 6817,
      "Ġconsole": 6818,
      "aditional": 6819,
      "Ġshit": 6820,
      "ĠGlobal": 6821,
      "Ġcomments": 6822,
      "Ġcook": 6823,
      "Ġsolves": 6824,
      "ĠRuntime": 6825,
      "Ġimprovement": 6826,
      "-|\\": 6827,
      "ĠEnsure": 6828,
      "URRENT": 6829,
      "SB": 6830,
      "Sarah": 6831,
      "nes": 6832,
      "template": 6833,
      "Ġcour": 6834,
      "Ġwins": 6835,
      "ĠRed": 6836,
      "ĠResp": 6837,
      "ups": 6838,
      "Ġ{/*": 6839,
      "Ġcapacity": 6840,
      "ĠProtocol": 6841,
      "Ġactivity": 6842,
      "Exp": 6843,
      "ĠCloud": 6844,
      "Ġindustry": 6845,
      "ĠREADMEs": 6846,
      "Ġfinish": 6847,
      "ĠEmbedding": 6848,
      "63": 6849,
      "ĠĠĠĠĠĠĠĠĠĠĠĠĠĠĠĠĠĠĠĠĠĠ": 6850,
      "Ġchats": 6851,
      "ocuments": 6852,
      "Ġsingleton": 6853,
      "Ġnaming": 6854,
      "Ġ?,": 6855,
      "ĠBoth": 6856,
      "ĠVisual": 6857,
      "((": 6858,
      "daemon": 6859,
      "kele": 6860,
      "ĠLimitless": 6861,
      "Ġexpose": 6862,
      "awn": 6863,
      "Ġmatrix": 6864,
      "Ġinsights": 6865,
      "vernance": 6866,
      "custom": 6867,
      "mcp": 6868,
      "Ġutility": 6869,
      "Ġtheoretical": 6870,
      "consist": 6871,
      "ĠBY": 6872,
      "ocation": 6873,
      "ĠStill": 6874,
      "ĠKnow": 6875,
      "Ġfluff": 6876,
      "ĠOnce": 6877,
      "Ġwindows": 6878,
      "Ġemergent": 6879,
      "Ġcontradict": 6880,
      "Ġcrucial": 6881,
      "PE": 6882,
      "URL": 6883,
      "Ġstrict": 6884,
      "ĠPRO": 6885,
      "ĠFil": 6886,
      "Ġworked": 6887,
      "Ġseems": 6888,
      "runs": 6889,
      "Ġdescribe": 6890,
      ".\\\"\\\"\\\"\\": 6891,
      "Ġlatent": 6892,
      "Ġfailures": 6893,
      "Ġflags": 6894,
      "patterns": 6895,
      "Ġ^^^^^^^^^^^^^^^^": 6896,
      "Ġmim": 6897,
      "Ġner": 6898,
      "Ġlibrary": 6899,
      "ĠFrom": 6900,
      "ĠModules": 6901,
      "Ġformats": 6902,
      "Ġviewer": 6903,
      "Ġproperty": 6904,
      "Ġresources": 6905,
      "Ġconsider": 6906,
      "Ġworkflows": 6907,
      "HF": 6908,
      "Su": 6909,
      "Total": 6910,
      "database": 6911,
      "fix": 6912,
      "stop": 6913,
      "stream": 6914,
      "anc": 6915,
      "ector": 6916,
      "Ġautomated": 6917,
      "Ġdeeply": 6918,
      "ĠClick": 6919,
      "Ġobserv": 6920,
      "good": 6921,
      "otentiation": 6922,
      "Ġeffects": 6923,
      "fill": 6924,
      "tier": 6925,
      "2024": 6926,
      "Ġhers": 6927,
      "ĠMachine": 6928,
      "ursive": 6929,
      "Ġlogin": 6930,
      "logic": 6931,
      "lective": 6932,
      "Ġfeeling": 6933,
      "Ġguarant": 6934,
      "STAMP": 6935,
      "Ġdistinct": 6936,
      "second": 6937,
      "Ġfrequency": 6938,
      "IMESTAMP": 6939,
      "Ġmetaphor": 6940,
      "Full": 6941,
      "else": 6942,
      "\",\"": 6943,
      "ĠĠĠĠĠĠĠĠĠĠĠĠĠĠĠĠĠĠĠĠĠĠĠĠĠĠ": 6944,
      "Ġintelligent": 6945,
      "Ġpreview": 6946,
      "Ġlocked": 6947,
      "Ġstrategies": 6948,
      "CLUDE": 6949,
      "<!--": 6950,
      "EX": 6951,
      "Ġtemporal": 6952,
      "Ġconsult": 6953,
      "asure": 6954,
      "hood": 6955,
      "duci": 6956,
      "Ġchanging": 6957,
      "--|----": 6958,
      "ĠEnterprise": 6959,
      "ĠManagement": 6960,
      "ĠParsed": 6961,
      "before": 6962,
      "Ġ**\\\"": 6963,
      "ĠCORS": 6964,
      "avit": 6965,
      "Ġguard": 6966,
      "clear": 6967,
      "Ġeasily": 6968,
      "novation": 6969,
      "datetime": 6970,
      "DATE": 6971,
      "Fast": 6972,
      "nPerfect": 6973,
      "information": 6974,
      "etary": 6975,
      "Ġgpt": 6976,
      "ĠApril": 6977,
      "ĠMon": 6978,
      "istral": 6979,
      "ĠUsing": 6980,
      "Ġcanonical": 6981,
      "ĠInclude": 6982,
      "Ġsubject": 6983,
      "greetings": 6984,
      "Ġpasses": 6985,
      "Ġcursor": 6986,
      "Ġlatency": 6987,
      "Files": 6988,
      "Ġscanner": 6989,
      "rypted": 6990,
      "MB": 6991,
      "because": 6992,
      "Ġwarn": 6993,
      "ructural": 6994,
      "illiant": 6995,
      "abilistic": 6996,
      "ollabor": 6997,
      "Ġsolvers": 6998,
      "Ġexplore": 6999,
      "Ġcompatibility": 7000,
      "Section": 7001,
      "ra": 7002,
      "Ġtries": 7003,
      "Ġrename": 7004,
      "ĠPull": 7005,
      "www": 7006,
      "ĠCOMP": 7007,
      "original": 7008,
      "Limitless": 7009,
      "sat": 7010,
      "sur": 7011,
      "anner": 7012,
      "Ġreve": 7013,
      "ashes": 7014,
      "ĠSan": 7015,
      "ĠMath": 7016,
      "Ġcontroll": 7017,
      "ialized": 7018,
      "ĠAllee": 7019,
      "Ġcuriosity": 7020,
      "oftware": 7021,
      "ĠLOG": 7022,
      "None": 7023,
      "gs": 7024,
      "knowledge": 7025,
      "Ġdouble": 7026,
      "imilar": 7027,
      "iced": 7028,
      "ape": 7029,
      "iggered": 7030,
      "Ġcomputational": 7031,
      "']}": 7032,
      "Ġinitialization": 7033,
      "Ġgreetings": 7034,
      "ĠMatrix": 7035,
      "ĠFlask": 7036,
      "6000": 7037,
      "Det": 7038,
      "Ġ%": 7039,
      "Ġdeli": 7040,
      "Ġnative": 7041,
      "ĠTake": 7042,
      "ĠTwitter": 7043,
      "Ġmeet": 7044,
      "Ġneuroscience": 7045,
      "ĠHel": 7046,
      "ĠBase": 7047,
      "Ġintu": 7048,
      "aked": 7049,
      "sider": 7050,
      "Ġcycles": 7051,
      "ĠServer": 7052,
      ")',": 7053,
      "pay": 7054,
      "wake": 7055,
      "Ġste": 7056,
      "yping": 7057,
      "Ġeventually": 7058,
      "Ġ40": 7059,
      "Ġreadme": 7060,
      "scoring": 7061,
      "Ġshaped": 7062,
      "Does": 7063,
      "ĠLoRA": 7064,
      "Ġcloser": 7065,
      "Personal": 7066,
      "She": 7067,
      "zen": 7068,
      "Ġmo": 7069,
      "unt": 7070,
      "plements": 7071,
      "keywords": 7072,
      "ĠGu": 7073,
      "____": 7074,
      "prietary": 7075,
      "Ġ*/}": 7076,
      "ph": 7077,
      "rest": 7078,
      "arily": 7079,
      "Ġmock": 7080,
      "Gemini": 7081,
      "Ġcity": 7082,
      "ctors": 7083,
      "Ġmapped": 7084,
      "feature": 7085,
      "ATA": 7086,
      "Ġdataclass": 7087,
      "Ġopens": 7088,
      "__).": 7089,
      "\"])": 7090,
      "Ġinstantly": 7091,
      "allowed": 7092,
      "friendly": 7093,
      "camp": 7094,
      "chain": 7095,
      "ĠCH": 7096,
      "sequences": 7097,
      "âĶĢâĶĢâĶĢâĶĢâĶĢâĶĢâĶĢâĶĢâĶĢâĶĢâĶ": 7098,
      "Ġunit": 7099,
      "AIL": 7100,
      "Ġpartial": 7101,
      "LLaMA": 7102,
      "Ġidentify": 7103,
      "Architecture": 7104,
      "Quick": 7105,
      "DULE": 7106,
      "Hierarchical": 7107,
      "da": 7108,
      "ghest": 7109,
      "Ġdialog": 7110,
      "Ġbigger": 7111,
      "Ġcombin": 7112,
      "show": 7113,
      "Ġmostly": 7114,
      "Ġinvol": 7115,
      "openai": 7116,
      "ĠINTEGER": 7117,
      "301": 7118,
      "KEY": 7119,
      "iably": 7120,
      "nDone": 7121,
      "oun": 7122,
      "Ġpaid": 7123,
      "impl": 7124,
      "aml": 7125,
      "Ġnum": 7126,
      "Ġ21": 7127,
      "ĠExt": 7128,
      "123": 7129,
      "Ġoverview": 7130,
      "Ġdecl": 7131,
      "focused": 7132,
      "ĠDraft": 7133,
      "Ġpublish": 7134,
      "(\"\"\"": 7135,
      "card": 7136,
      "fund": 7137,
      "mic": 7138,
      "oy": 7139,
      "cio": 7140,
      "Ġquiet": 7141,
      "yncio": 7142,
      "Ġflip": 7143,
      "umber": 7144,
      "header": 7145,
      "filter": 7146,
      "ĠOverview": 7147,
      "App": 7148,
      "review": 7149,
      "Ġtuning": 7150,
      "eder": 7151,
      "ĠMove": 7152,
      "ĠCr": 7153,
      "Ġvenv": 7154,
      "ĠRel": 7155,
      "ĠOff": 7156,
      "Ġjourn": 7157,
      "Ġoutcome": 7158,
      "Ġcapable": 7159,
      "Ġexperiments": 7160,
      "ĠActivation": 7161,
      "Server": 7162,
      "Spec": 7163,
      "Ġrepeated": 7164,
      "Ġherself": 7165,
      ")\",": 7166,
      "batch": 7167,
      "uz": 7168,
      "alience": 7169,
      "Ġrewrite": 7170,
      "ersp": 7171,
      "ĠAR": 7172,
      "eck": 7173,
      "ĠLeg": 7174,
      "Ġenforce": 7175,
      "Goal": 7176,
      "ĠAppro": 7177,
      "Ġpackages": 7178,
      "ĠReplace": 7179,
      "Ġportfolio": 7180,
      "Ġ1188": 7181,
      "Ġdedicated": 7182,
      "AY": 7183,
      "Link": 7184,
      "`)\\": 7185,
      "bl": 7186,
      "nIn": 7187,
      "Ġhu": 7188,
      "eves": 7189,
      "ĠStandard": 7190,
      "ansion": 7191,
      "ĠView": 7192,
      "Ġdescriptions": 7193,
      "Ġreliable": 7194,
      "Analy": 7195,
      "shortcuts": 7196,
      "Ġexpects": 7197,
      "Ġconcerns": 7198,
      "unified": 7199,
      "feel": 7200,
      "irements": 7201,
      "Ġpretty": 7202,
      "Ġformatted": 7203,
      "ĠChange": 7204,
      "ĠEvalu": 7205,
      "Ġindependent": 7206,
      "Definition": 7207,
      "ohn": 7208,
      "ippet": 7209,
      "Size": 7210,
      "ited": 7211,
      "Ġstability": 7212,
      "ĠMap": 7213,
      "abling": 7214,
      "ĠRoute": 7215,
      "serve": 7216,
      "riction": 7217,
      "Ġatomic": 7218,
      "ĠðŁĽ": 7219,
      "shutdown": 7220,
      "Ġdiff": 7221,
      "fline": 7222,
      "components": 7223,
      "Ġtempor": 7224,
      "ottlen": 7225,
      "ĠService": 7226,
      "Parser": 7227,
      ",âĢĿ": 7228,
      "entry": 7229,
      "abases": 7230,
      "():\\": 7231,
      "Ġextracts": 7232,
      "Ġextracted": 7233,
      "Ġhighlight": 7234,
      "347": 7235,
      "ĠCalls": 7236,
      "30102": 7237,
      "zone": 7238,
      "Ġcat": 7239,
      "Ġlack": 7240,
      "Ġcompliance": 7241,
      "Ġwrap": 7242,
      "Consolidation": 7243,
      "haviors": 7244,
      "ĠTests": 7245,
      "FIG": 7246,
      "elty": 7247,
      "ĠFixed": 7248,
      "learning": 7249,
      "Ġdigital": 7250,
      "direction": 7251,
      "got": 7252,
      "vironment": 7253,
      "anks": 7254,
      "isf": 7255,
      "ĠSupport": 7256,
      "ĠWhile": 7257,
      "antage": 7258,
      "Ġencoding": 7259,
      "Ġ2024": 7260,
      "Ġdoesnt": 7261,
      "Ġdescript": 7262,
      "weights": 7263,
      "Ġcrit": 7264,
      "Ġsales": 7265,
      "ĠEverything": 7266,
      "Ġauthor": 7267,
      "ĠDESC": 7268,
      "solute": 7269,
      "Ġaccurate": 7270,
      "Ġoccur": 7271,
      "isoformat": 7272,
      "Ġdictionary": 7273,
      "Ġtwe": 7274,
      "stood": 7275,
      "Ġreload": 7276,
      "Ġ\".": 7277,
      "Ġarea": 7278,
      "ĠRequest": 7279,
      "pocamp": 7280,
      "ikely": 7281,
      "Ġfixes": 7282,
      "Ġcollect": 7283,
      "iversal": 7284,
      "Ġaccum": 7285,
      "ĠTypeScript": 7286,
      "Absolutely": 7287,
      "Ġcircu": 7288,
      "UB": 7289,
      "cat": 7290,
      "Ġreduce": 7291,
      "exactly": 7292,
      "ĠAlready": 7293,
      "Ġassociations": 7294,
      "Ġreply": 7295,
      "Ġscreen": 7296,
      "Ġtorch": 7297,
      "loc": 7298,
      "Ġbill": 7299,
      "ula": 7300,
      "formance": 7301,
      "udo": 7302,
      "\\\"]\\": 7303,
      "predict": 7304,
      "ĠInternal": 7305,
      "factory": 7306,
      "Ġecosystem": 7307,
      "Clean": 7308,
      "cI": 7309,
      "same": 7310,
      "Ġsever": 7311,
      "Ġfight": 7312,
      "Ġdue": 7313,
      "Ġtiming": 7314,
      "Ġdegrad": 7315,
      "MARY": 7316,
      "ĠðŁĶģ": 7317,
      "Training": 7318,
      "Ġretrieve": 7319,
      "---|\\": 7320,
      "Ġaccident": 7321,
      "Ġefficiency": 7322,
      "Ġconsolidated": 7323,
      "Final": 7324,
      "LY": 7325,
      "num": 7326,
      "Ġwom": 7327,
      "Ġresonance": 7328,
      "adigm": 7329,
      "emper": 7330,
      "ĠSk": 7331,
      "ĠCURRENT": 7332,
      "Ġlists": 7333,
      "after": 7334,
      "Ġdevs": 7335,
      "ĠGraph": 7336,
      "Ġprefix": 7337,
      "ĠScale": 7338,
      "Ġisolated": 7339,
      "Under": 7340,
      "ben": 7341,
      "Ġcop": 7342,
      "Ġconstr": 7343,
      "icial": 7344,
      "ĠALL": 7345,
      "ĠRO": 7346,
      "formed": 7347,
      "ĠDe": 7348,
      "ĠĠĠĠĠĠĠĠĠĠĠĠĠĠĠĠĠĠĠĠĠĠĠĠĠĠĠĠĠĠĠĠĠĠĠ": 7349,
      "ĠmachineID": 7350,
      "Ġdevice": 7351,
      "Ġpreserve": 7352,
      "IGH": 7353,
      "5173": 7354,
      "Tier": 7355,
      "âģ": 7356,
      "Ġpotentiation": 7357,
      "Ġ\"**": 7358,
      "Ġ(!": 7359,
      "ĠTHE": 7360,
      "Export": 7361,
      "Ġclosed": 7362,
      "Ġempir": 7363,
      "Ġsentence": 7364,
      "cellent": 7365,
      "')}": 7366,
      "82": 7367,
      "bing": 7368,
      "ys": 7369,
      "organ": 7370,
      "âĶľ": 7371,
      "adius": 7372,
      "Ġgave": 7373,
      "then": 7374,
      "Ġadditional": 7375,
      "Ġindent": 7376,
      "Ġfinancial": 7377,
      "ĠGoal": 7378,
      "ĠDELETE": 7379,
      "uffer": 7380,
      "Ġcombined": 7381,
      "Sub": 7382,
      "bits": 7383,
      "onus": 7384,
      "onna": 7385,
      "Ġfig": 7386,
      "Ġpe": 7387,
      "252": 7388,
      "ĠIP": 7389,
      "\\\"\\\"\\\"\\": 7390,
      "Ġpreference": 7391,
      "Ġsimulation": 7392,
      "Ġdiscussed": 7393,
      "Ġmanaging": 7394,
      "ĠExperiential": 7395,
      "Ġredund": 7396,
      "Ġachi": 7397,
      "Ne": 7398,
      "ming": 7399,
      "Ġmism": 7400,
      "**âĢĶ": 7401,
      "Ġreplay": 7402,
      "opt": 7403,
      "Ġgames": 7404,
      "Ġho": 7405,
      "Ġmodern": 7406,
      "Ġreturning": 7407,
      "should": 7408,
      "Ġpathlib": 7409,
      "Ġmarkers": 7410,
      "Ġindexes": 7411,
      "ĠðŁĮĮ": 7412,
      "ĠShows": 7413,
      "avitational": 7414,
      ":/": 7415,
      "ring": 7416,
      "Ġmid": 7417,
      "Ġmut": 7418,
      "Ġpages": 7419,
      "Ġrender": 7420,
      "127": 7421,
      "Ġviol": 7422,
      "nThey": 7423,
      "Ġdistance": 7424,
      "package": 7425,
      "ķĲâķĲâķĲâķĲâķĲâķĲâķĲâķĲâķĲâķĲâķĲâķĲâķĲâķĲâķĲâķĲâ": 7426,
      "Ġgracefully": 7427,
      "4000": 7428,
      "mnt": 7429,
      "yaml": 7430,
      "Ġten": 7431,
      "idv": 7432,
      "iday": 7433,
      "nowled": 7434,
      "Ġlinked": 7435,
      "ached": 7436,
      "Ġcompanies": 7437,
      "âĶĶâĶĢâĶĢ": 7438,
      "Ġpractice": 7439,
      "handle": 7440,
      "?*": 7441,
      "atter": 7442,
      "Ġcame": 7443,
      "Ġsrc": 7444,
      "ingu": 7445,
      "oday": 7446,
      "Ġstd": 7447,
      "hoose": 7448,
      "Ġenforced": 7449,
      "ontal": 7450,
      "ĠðŁĶ§": 7451,
      "Ġdistribution": 7452,
      "mlx": 7453,
      "details": 7454,
      "Ġprecision": 7455,
      "ĠLLC": 7456,
      "Ġblueprint": 7457,
      "AGI": 7458,
      "nNot": 7459,
      "sleep": 7460,
      "tsp": 7461,
      "aning": 7462,
      "Ġdom": 7463,
      "Ġagency": 7464,
      "Ġabuse": 7465,
      "Ġdisabled": 7466,
      "ersistence": 7467,
      ");\\": 7468,
      "INE": 7469,
      "Ġsketch": 7470,
      "ðŁĴ¥": 7471,
      "ausal": 7472,
      "Ġrepeat": 7473,
      "Ġmagic": 7474,
      "Dev": 7475,
      "cite": 7476,
      "rat": 7477,
      "sents": 7478,
      "Ġfelt": 7479,
      "ention": 7480,
      "Ġresource": 7481,
      "Ġbus": 7482,
      "ading": 7483,
      "hist": 7484,
      "ĠAuth": 7485,
      "ĠDM": 7486,
      "Ġscales": 7487,
      "Ġhash": 7488,
      "ĠAIOS": 7489,
      "ĠTrigger": 7490,
      "Ġintegrated": 7491,
      "ĠLogging": 7492,
      "Ġorganized": 7493,
      "Ġswitching": 7494,
      "ĠPyTorch": 7495,
      "Ġparticip": 7496,
      "77": 7497,
      "Feeds": 7498,
      "Oh": 7499,
      "YY": 7500,
      "public": 7501,
      "{\\": 7502,
      "Ġ80": 7503,
      "Ġca": 7504,
      "ĠAS": 7505,
      "unication": 7506,
      "ĠOur": 7507,
      "getenv": 7508,
      "Ġimportance": 7509,
      "Ġrecognition": 7510,
      "Ġpointers": 7511,
      "Ġbrand": 7512,
      "Ġfilename": 7513,
      "lightly": 7514,
      "Ġcharacters": 7515,
      "fastapi": 7516,
      "Ġuniverse": 7517,
      "Ġrevenue": 7518,
      "erspect": 7519,
      "\"\\": 7520,
      ">(": 7521,
      "Delete": 7522,
      "VAL": 7523,
      "exper": 7524,
      "Ġpropose": 7525,
      "ĠRoden": 7526,
      "ĠEdit": 7527,
      "Ġsequences": 7528,
      "claim": 7529,
      "2190": 7530,
      "Ġmanip": 7531,
      "ferential": 7532,
      "Ġreliability": 7533,
      "Ġtells": 7534,
      "Ġrestarts": 7535,
      "alleeai": 7536,
      "fficient": 7537,
      "Ġresistance": 7538,
      "emperature": 7539,
      "ACT": 7540,
      "Me": 7541,
      "Over": 7542,
      "PY": 7543,
      "deb": 7544,
      "apid": 7545,
      "Ġmodes": 7546,
      "Ġ{'": 7547,
      "tracking": 7548,
      "Ġdesktop": 7549,
      "ĠðŁĺ": 7550,
      "Ġroom": 7551,
      "Ġwebhook": 7552,
      "Ġholding": 7553,
      "ĠStrong": 7554,
      "chunk": 7555,
      "ĠAgents": 7556,
      "aight": 7557,
      "kernel": 7558,
      "mk": 7559,
      "med": 7560,
      "sens": 7561,
      "ised": 7562,
      "isod": 7563,
      "Ġconcrete": 7564,
      "Ġstock": 7565,
      "Ġgonna": 7566,
      "servers": 7567,
      "ĠLe": 7568,
      "Ġexit": 7569,
      "ĠDone": 7570,
      "Ġheavy": 7571,
      "via": 7572,
      "ĠValidation": 7573,
      "ĠToolCall": 7574,
      "Ġpersists": 7575,
      "vention": 7576,
      "Ġresponds": 7577,
      "AUTH": 7578,
      "utils": 7579,
      "Ġexplanation": 7580,
      "ĠFeatures": 7581,
      "Ġinternally": 7582,
      "isodic": 7583,
      "(()": 7584,
      "]}": 7585,
      "sandbox": 7586,
      "Ġtour": 7587,
      "orth": 7588,
      "itten": 7589,
      "etition": 7590,
      "ĠAure": 7591,
      "ĠBrowser": 7592,
      "Ġareas": 7593,
      "ostic": 7594,
      "Ġdatabases": 7595,
      "Ġapps": 7596,
      "Ġallowing": 7597,
      "Ġcommunic": 7598,
      "Ġtrend": 7599,
      "ivalent": 7600,
      "summarize": 7601,
      "uzz": 7602,
      "Ġseveral": 7603,
      "*:": 7604,
      "Action": 7605,
      "Mode": 7606,
      "poll": 7607,
      "Ġuv": 7608,
      "Ġtun": 7609,
      "isco": 7610,
      "Ġresp": 7611,
      "ethical": 7612,
      "Ġthrow": 7613,
      "ĠSince": 7614,
      "Ġhop": 7615,
      "ecycle": 7616,
      "Ġknowing": 7617,
      "Ġunderstands": 7618,
      "Research": 7619,
      "dependencies": 7620,
      "Ġtypically": 7621,
      "LLMs": 7622,
      "Ġforeign": 7623,
      "îĪĤ": 7624,
      "Ġhistorical": 7625,
      "Be": 7626,
      "SO": 7627,
      "Ġflo": 7628,
      "Ġpropag": 7629,
      "ĠRem": 7630,
      "confidence": 7631,
      "Ġgrid": 7632,
      "Ġcontaining": 7633,
      "Ġidv": 7634,
      "depth": 7635,
      "Ġproviding": 7636,
      "Ġtopic": 7637,
      "Ġfacet": 7638,
      "Ġinspectable": 7639,
      "Ġaudience": 7640,
      "As": 7641,
      "Llama": 7642,
      "field": 7643,
      "fessional": 7644,
      "move": 7645,
      "}\",": 7646,
      "Ġrely": 7647,
      "priv": 7648,
      "ðŁ§": 7649,
      "Ġperception": 7650,
      "Ġcover": 7651,
      "Ġdevelopers": 7652,
      "iverr": 7653,
      "Ġselling": 7654,
      "help": 7655,
      "Ġcoordination": 7656,
      "dimensional": 7657,
      ",\\\"": 7658,
      "ba": 7659,
      "arrow": 7660,
      "âĶĺ": 7661,
      "utf": 7662,
      "ĠSepar": 7663,
      "Ġemotion": 7664,
      "agraph": 7665,
      "Ġcarry": 7666,
      "Ġpurposes": 7667,
      "Ġnights": 7668,
      "Ġoverlap": 7669,
      "paste": 7670,
      "lets": 7671,
      "ednes": 7672,
      "Ġlicens": 7673,
      "ĠPass": 7674,
      "ĠLong": 7675,
      "ĠOptim": 7676,
      "ĠarXiv": 7677,
      "tests": 7678,
      "Ġconsistently": 7679,
      "olicy": 7680,
      "Ġarguments": 7681,
      "SQLite": 7682,
      "ednesday": 7683,
      ":.": 7684,
      "DR": 7685,
      "Hebbian": 7686,
      "Str": 7687,
      "VP": 7688,
      "oss": 7689,
      "vable": 7690,
      "Ġ)\\": 7691,
      "ĠId": 7692,
      "think": 7693,
      "ĠAM": 7694,
      "endpoint": 7695,
      "ĠDynamic": 7696,
      "Ġbehaviors": 7697,
      "acu": 7698,
      "Ġacademic": 7699,
      "Ġconfigs": 7700,
      "Ġthoughts": 7701,
      "Ġdepends": 7702,
      "Ġfrequently": 7703,
      "Ġrecommend": 7704,
      "ĠTerminal": 7705,
      "Ġshifts": 7706,
      "WH": 7707,
      "jac": 7708,
      "next": 7709,
      "Ġfre": 7710,
      "Ġfear": 7711,
      "olit": 7712,
      "Ġ`--": 7713,
      "Ġsecret": 7714,
      "ĠAnch": 7715,
      "Ġflu": 7716,
      "swith": 7717,
      "|-------|--------": 7718,
      "ĠðŁĴ¡": 7719,
      "([": 7720,
      "inference": 7721,
      "âĶģ": 7722,
      "utc": 7723,
      "Ġlol": 7724,
      "Ġrig": 7725,
      "Ġtraces": 7726,
      "Ġ300": 7727,
      "Ġhear": 7728,
      "Ġago": 7729,
      "Ġneeding": 7730,
      "modular": 7731,
      "Ġprocessed": 7732,
      "ĠðŁĶ¥": 7733,
      "hysical": 7734,
      "ĠReturn": 7735,
      "ĠAdv": 7736,
      "ĠBoard": 7737,
      "Ġassembled": 7738,
      "keleton": 7739,
      "ancisco": 7740,
      "-|------------": 7741,
      "nership": 7742,
      "inates": 7743,
      "Ġwall": 7744,
      "ĠAtt": 7745,
      "ĠPi": 7746,
      "strate": 7747,
      "Ġplans": 7748,
      "Ġshowed": 7749,
      "bootstrap": 7750,
      "Ġwouldn": 7751,
      "ĠFrancisco": 7752,
      "Ġcollaboration": 7753,
      "ĠAutoGPT": 7754,
      "Ġcredentials": 7755,
      "Even": 7756,
      "Ġambiguity": 7757,
      "btn": 7758,
      "PDATE": 7759,
      "Session": 7760,
      "gment": 7761,
      "nL": 7762,
      "Ġwidth": 7763,
      "ambigu": 7764,
      "Ġnone": 7765,
      "ĠSend": 7766,
      "Ġhybrid": 7767,
      "ignt": 7768,
      "urons": 7769,
      "Ġposs": 7770,
      "overed": 7771,
      "ĠSelect": 7772,
      "Ġvectors": 7773,
      "ĠMethod": 7774,
      "ignty": 7775,
      "?**\\": 7776,
      "Mac": 7777,
      "Te": 7778,
      "UN": 7779,
      "morning": 7780,
      "Ġir": 7781,
      "orchestrator": 7782,
      "Ġmal": 7783,
      "amil": 7784,
      "ĠSave": 7785,
      "Ġexception": 7786,
      "Ġexpression": 7787,
      "ĠBetter": 7788,
      "angelog": 7789,
      "Ġkeywords": 7790,
      "Ġextend": 7791,
      "voke": 7792,
      "ĠðŁĶį": 7793,
      "Ġlimitations": 7794,
      "Ġorganize": 7795,
      "Ġaggregate": 7796,
      "Ġphrase": 7797,
      "78": 7798,
      "HTTP": 7799,
      "Phone": 7800,
      "float": 7801,
      "human": 7802,
      "making": 7803,
      "report": 7804,
      "Ġnp": 7805,
      "ĠWatch": 7806,
      "ĠRest": 7807,
      "irror": 7808,
      "Ġconceptual": 7809,
      "Ġserves": 7810,
      "reflection": 7811,
      "\\\":\\\"": 7812,
      "nWhen": 7813,
      "Ġassembles": 7814,
      "parts": 7815,
      "Ġhooks": 7816,
      "chunks": 7817,
      "acuum": 7818,
      "96": 7819,
      "Aut": 7820,
      "aque": 7821,
      "ees": 7822,
      "final": 7823,
      "vous": 7824,
      "Ġlever": 7825,
      "Ġslic": 7826,
      "Ġstoring": 7827,
      "ophist": 7828,
      "ĠTwilio": 7829,
      "ĠSimul": 7830,
      "Ġ1347": 7831,
      "ĠRL": 7832,
      "ĠDist": 7833,
      "undle": 7834,
      "Ġaware": 7835,
      "Ġrecency": 7836,
      "backed": 7837,
      "activation": 7838,
      "ĠUpdates": 7839,
      "2238": 7840,
      "requency": 7841,
      "ĠRecord": 7842,
      "Ġprioritize": 7843,
      "Ġ134731": 7844,
      "Keep": 7845,
      "Min": 7846,
      "kinter": 7847,
      "Ġmobile": 7848,
      "Ġinc": 7849,
      "ĠSeed": 7850,
      "Ġ`\\\"": 7851,
      "Ġannot": 7852,
      "Ġnoticed": 7853,
      "astic": 7854,
      "strategy": 7855,
      "Ġanywhere": 7856,
      "Ġdiscover": 7857,
      "Ġexplains": 7858,
      "proval": 7859,
      "Ġfunding": 7860,
      "RUD": 7861,
      "Ġstudy": 7862,
      "Ġescalation": 7863,
      "âĶģâĶģ": 7864,
      "Py": 7865,
      "Web": 7866,
      "document": 7867,
      "stage": 7868,
      "lement": 7869,
      "ĠTheir": 7870,
      "Ġenhance": 7871,
      "Ġstraight": 7872,
      "ĠExternal": 7873,
      "Ġ400": 7874,
      "Ġroll": 7875,
      "ĠMetadata": 7876,
      "scripts": 7877,
      "ĠHosts": 7878,
      "NOLA": 7879,
      "Router": 7880,
      "deep": 7881,
      "icism": 7882,
      "ĠSummar": 7883,
      "ĠonChange": 7884,
      "ĠFund": 7885,
      "ultane": 7886,
      "Ġsecure": 7887,
      "Ġpartner": 7888,
      "Ġassociate": 7889,
      "SHORT": 7890,
      "contained": 7891,
      "CONFIG": 7892,
      "Optional": 7893,
      "ĠâīĪ": 7894,
      ")\"": 7895,
      "7000": 7896,
      "Edit": 7897,
      "arse": 7898,
      "ĠEst": 7899,
      "ird": 7900,
      "Ġtheme": 7901,
      "Ġsmo": 7902,
      "umbs": 7903,
      "Allee": 7904,
      "Ġskills": 7905,
      "Ġreceives": 7906,
      "ĠMeta": 7907,
      "ĠDefault": 7908,
      "ĠEXIST": 7909,
      "Ġsatisf": 7910,
      "Ġlatest": 7911,
      "CI": 7912,
      "Effect": 7913,
      "Focus": 7914,
      "Sidebar": 7915,
      "ox": 7916,
      "some": 7917,
      "Ġcold": 7918,
      "Ġsqlite": 7919,
      "Ġfour": 7920,
      "Ġstage": 7921,
      "ĠSw": 7922,
      "ulates": 7923,
      "ĠInitial": 7924,
      "Ġhelpers": 7925,
      "Ġcontinuous": 7926,
      "Ġwrapped": 7927,
      "ðŁĴ¡": 7928,
      "Ġcaptures": 7929,
      "DD": 7930,
      "]]": 7931,
      "Ġtension": 7932,
      "Ġpain": 7933,
      "isks": 7934,
      "Ġconsum": 7935,
      "ĠTSP": 7936,
      "ĠUsers": 7937,
      "ĠHN": 7938,
      "Ġlogical": 7939,
      "Ġenabling": 7940,
      "gravity": 7941,
      "Ġartic": 7942,
      "arness": 7943,
      "Ġabsolute": 7944,
      "Ġautomatic": 7945,
      "Ġexecutes": 7946,
      "Ġimplementing": 7947,
      "ĠConsolidationLoop": 7948,
      "Comm": 7949,
      "Ġconnects": 7950,
      "Ġcached": 7951,
      "Short": 7952,
      "Ġforever": 7953,
      "Output": 7954,
      "MS": 7955,
      "OP": 7956,
      "browser": 7957,
      "nC": 7958,
      "nat": 7959,
      "ners": 7960,
      "itution": 7961,
      "oups": 7962,
      "elcome": 7963,
      "igital": 7964,
      "appear": 7965,
      "Ġinstinct": 7966,
      "Ġownership": 7967,
      "Ġapproaches": 7968,
      "setup": 7969,
      "Ġsuccessful": 7970,
      "Ġsymbolic": 7971,
      "pocampus": 7972,
      "Human": 7973,
      "Ġkept": 7974,
      "Ġthesis": 7975,
      "Ġbrief": 7976,
      "Ġgating": 7977,
      "ilities": 7978,
      "contract": 7979,
      "Ġran": 7980,
      "Ġ{...": 7981,
      "ĠStream": 7982,
      "claude": 7983,
      "ĠREAL": 7984,
      "Ġrecovery": 7985,
      "ĠOSF": 7986,
      "Ġthinks": 7987,
      "Ġtopics": 7988,
      "anned": 7989,
      "Ġsignature": 7990,
      "Ġsorted": 7991,
      "Ġtags": 7992,
      "ĠRemoved": 7993,
      "Ġalongside": 7994,
      "ASS": 7995,
      "eat": 7996,
      "las": 7997,
      "}]": 7998,
      "Ġ);": 7999,
      "Ġuvicorn": 8000,
      "Ġtick": 8001,
      "edIn": 8002,
      "Ġinvent": 8003,
      "changes": 8004,
      "ĠIF": 8005,
      "Ġovers": 8006,
      "Ġ114": 8007,
      "Ġdock": 8008,
      "Ġimplements": 8009,
      "ĠThom": 8010,
      "stract": 8011,
      "runtime": 8012,
      "Ġsovere": 8013,
      "Ġboot": 8014,
      "Information": 8015,
      "Ġsender": 8016,
      "remely": 8017,
      "Ġdeadline": 8018,
      "600": 8019,
      "TY": 8020,
      "UE": 8021,
      "nB": 8022,
      "onential": 8023,
      "Ġbedrock": 8024,
      "Ġaltern": 8025,
      "ĠConstraint": 8026,
      "Ġinterfaces": 8027,
      "notify": 8028,
      "Ġcomputer": 8029,
      "Ġargs": 8030,
      "Ġinterpreter": 8031,
      "cpp": 8032,
      "Ġtrading": 8033,
      "Ġparticular": 8034,
      "*)": 8035,
      "Dr": 8036,
      "Em": 8037,
      "Post": 8038,
      "rame": 8039,
      "Ġtied": 8040,
      "Ġreferen": 8041,
      "Ġretraining": 8042,
      "Ġbrow": 8043,
      "Ġstuck": 8044,
      "ĠMessage": 8045,
      "rules": 8046,
      "Ġ28": 8047,
      "Ġnotice": 8048,
      "ĠConsider": 8049,
      "\\\",\\\"": 8050,
      "Ġprotection": 8051,
      "Ġshaping": 8052,
      "directory": 8053,
      "Ġuniversal": 8054,
      "Ġutils": 8055,
      "don": 8056,
      "hour": 8057,
      "Ġinner": 8058,
      "Ġ150": 8059,
      "ĠNode": 8060,
      "Ġhighest": 8061,
      "ĠBlack": 8062,
      "ĠRegist": 8063,
      "Ġoutcomes": 8064,
      "Ġrotation": 8065,
      "Ġmission": 8066,
      "scale": 8067,
      "Ġattack": 8068,
      "Implement": 8069,
      "Ġanchoring": 8070,
      "Ġtried": 8071,
      "cludes": 8072,
      "ĠSecurity": 8073,
      "Ġattachments": 8074,
      "payload": 8075,
      "free": 8076,
      "li": 8077,
      "schedule": 8078,
      "zer": 8079,
      "Ġaim": 8080,
      "Ġstick": 8081,
      "Ġstale": 8082,
      "Ġfork": 8083,
      "Ġoat": 8084,
      "ĠRouter": 8085,
      "endor": 8086,
      "Ġoverhead": 8087,
      "Ġintegrations": 8088,
      "Ġlattes": 8089,
      "Ġincreases": 8090,
      "shortcut": 8091,
      "ium": 8092,
      "npython": 8093,
      "Ġsometimes": 8094,
      "rote": 8095,
      "ĠCRUD": 8096,
      "ĠEasy": 8097,
      "ĠHome": 8098,
      "Ġsimultane": 8099,
      "Ġdetected": 8100,
      "swer": 8101,
      "iques": 8102,
      "Ġteams": 8103,
      "Ġpositions": 8104,
      "Ġcenter": 8105,
      "Ġtransformer": 8106,
      "Ġconsolidate": 8107,
      "Ġbiological": 8108,
      "ĠEXISTS": 8109,
      "/__": 8110,
      "Hi": 8111,
      "bas": 8112,
      "nElaris": 8113,
      "Ġgain": 8114,
      "Ġhype": 8115,
      "ĠPRI": 8116,
      "ĠLock": 8117,
      "ĠFree": 8118,
      "ĠðŁŁ": 8119,
      "Ġcheckpoints": 8120,
      "TEM": 8121,
      "Ġfilesystem": 8122,
      "Ġweighting": 8123,
      "Ġemails": 8124,
      "Ġentropy": 8125,
      "ĠIntegr": 8126,
      "required": 8127,
      "Ġimproves": 8128,
      "Ġindexed": 8129,
      "finite": 8130,
      "Ġsurvival": 8131,
      "Ġsynchron": 8132,
      "BOLD": 8133,
      "nel": 8134,
      "watch": 8135,
      "ĠAG": 8136,
      "Ġhint": 8137,
      "ĠRule": 8138,
      "aybe": 8139,
      "Ġmeeting": 8140,
      "izations": 8141,
      "ĠHas": 8142,
      "--|\\": 8143,
      "Ġobvious": 8144,
      "ĠActual": 8145,
      "Ġmeasurable": 8146,
      "Ġsurvive": 8147,
      "ĠAutonom": 8148,
      "Ġprecise": 8149,
      "Mind": 8150,
      "sections": 8151,
      "static": 8152,
      "entral": 8153,
      "Ġlost": 8154,
      "ĠJordan": 8155,
      "Ġcontrolled": 8156,
      "Prov": 8157,
      "Ġwhite": 8158,
      ".âĢĿ*": 8159,
      "Ġeditable": 8160,
      "ĠScoring": 8161,
      "Ġincrement": 8162,
      "Ġstatistics": 8163,
      "Ġreports": 8164,
      "Ġpermissions": 8165,
      "ĠJanuary": 8166,
      "VERS": 8167,
      "vscode": 8168,
      "ĠCOMPLETE": 8169,
      "ophisticated": 8170,
      "Ġmount": 8171,
      "Ġhr": 8172,
      "Ġhoriz": 8173,
      "ĠUX": 8174,
      "ĠUsed": 8175,
      "Ġexceed": 8176,
      "Ġangle": 8177,
      "Ġrich": 8178,
      "ivot": 8179,
      "environ": 8180,
      "âľĵ": 8181,
      "nAss": 8182,
      "Trans": 8183,
      "ĠGeneral": 8184,
      "ĠProcessing": 8185,
      "nett": 8186,
      "Install": 8187,
      "Ġargument": 8188,
      "Ġratio": 8189,
      "86": 8190,
      "MENT": 8191,
      "Tok": 8192,
      "pson": 8193,
      "td": 8194,
      "itation": 8195,
      "Ġbul": 8196,
      "Ġwhats": 8197,
      "Ġapplies": 8198,
      "Ġoutperform": 8199,
      "Ġletting": 8200,
      "ĠClaim": 8201,
      "Background": 8202,
      "ĠDeterministic": 8203,
      "Ġisolation": 8204,
      "Interface": 8205,
      "ĠfontSize": 8206,
      "azy": 8207,
      "ĠApproach": 8208,
      "Ġdocker": 8209,
      "ĠThompson": 8210,
      "\").": 8211,
      ".'": 8212,
      "Polaris": 8213,
      "Value": 8214,
      "bb": 8215,
      "sql": 8216,
      "ya": 8217,
      "rozen": 8218,
      "amb": 8219,
      "ĠSlack": 8220,
      "ĠMarcus": 8221,
      "urations": 8222,
      "Ġonboarding": 8223,
      "ĠBl": 8224,
      "inding": 8225,
      "Ġenforces": 8226,
      "Ġ8000": 8227,
      "connected": 8228,
      "Ġflexible": 8229,
      "Ġpolling": 8230,
      "ĠObject": 8231,
      "elsey": 8232,
      "lers": 8233,
      "rew": 8234,
      "atives": 8235,
      "hift": 8236,
      "userID": 8237,
      "Ġcoming": 8238,
      "group": 8239,
      "Ġsubstrate": 8240,
      "method": 8241,
      "PUT": 8242,
      "secret": 8243,
      "ĠNews": 8244,
      "âĶĢâĶĢâĶĢâĶĢâĶĢâĶĢâĶĢâĶĢâĶĢâĶĢâĶĢâĶĢâĶĢâĶĢâĶĢâĶĢâĶĢâĶĢâĶĢâĶĢâĶĢâĶĢâĶĢâĶĢâĶĢâĶĢâĶĢâĶĢâĶĢâĶĢâĶĢâĶĢâĶĢâĶĢâĶĢâĶĢâĶĢâĶĢâĶĢâĶĢâĶĢâĶĢâĶĢâĶĢâĶĢâĶĢâĶĢâĶĢâĶĢâĶĢâĶĢâĶĢâĶĢâĶĢâĶĢâĶĢ": 8245,
      "Ġtraditional": 8246,
      "ĠTeam": 8247,
      "Ġmanifest": 8248,
      "Database": 8249,
      "Emb": 8250,
      "Line": 8251,
      "LARIS": 8252,
      "Technical": 8253,
      "functions": 8254,
      "rails": 8255,
      "tected": 8256,
      "typing": 8257,
      "Ġaverage": 8258,
      "Ġfair": 8259,
      "Ġbi": 8260,
      "Ġconcurrent": 8261,
      "Ġstrip": 8262,
      "Ġhypothesis": 8263,
      "updates": 8264,
      "Ġcontextual": 8265,
      "rences": 8266,
      "Ġ}}": 8267,
      "ĠInfrastructure": 8268,
      "sock": 8269,
      "prompts": 8270,
      "Ġposts": 8271,
      "Ġscreenshot": 8272,
      "Ġsharp": 8273,
      "mkdir": 8274,
      "AM": 8275,
      "CSS": 8276,
      "inated": 8277,
      "elapsed": 8278,
      "adow": 8279,
      "254": 8280,
      "ĠTop": 8281,
      "quality": 8282,
      "ĠFuture": 8283,
      "ĠBefore": 8284,
      "|--------|--------": 8285,
      "elling": 8286,
      "Ġmessy": 8287,
      "Ġproduces": 8288,
      "iteria": 8289,
      "ĠIDs": 8290,
      "Ġfires": 8291,
      "autom": 8292,
      "))\\": 8293,
      "needs": 8294,
      "vol": 8295,
      "Ġmaster": 8296,
      "Ġrehyd": 8297,
      "Ġtold": 8298,
      "ĠTier": 8299,
      "Ġhis": 8300,
      "Ġdoor": 8301,
      "Ġlean": 8302,
      "Ġ[...": 8303,
      "Ġcompeting": 8304,
      "ĠImprov": 8305,
      "Proper": 8306,
      "Ġvars": 8307,
      "Regist": 8308,
      "Ġdistributed": 8309,
      "Ġstops": 8310,
      "Ġstatistical": 8311,
      "Graph": 8312,
      "received": 8313,
      ">{": 8314,
      "Count": 8315,
      "VENT": 8316,
      "care": 8317,
      "sively": 8318,
      "}\\\")\\": 8319,
      "Ġive": 8320,
      "Ġqwen": 8321,
      "Ġprice": 8322,
      "acter": 8323,
      "icing": 8324,
      "ĠMakes": 8325,
      "Ġ128": 8326,
      "Ġrank": 8327,
      "ĠStack": 8328,
      "Ġ~/": 8329,
      "obj": 8330,
      "Ġcrashes": 8331,
      "nWe": 8332,
      "Ġrelational": 8333,
      "Ġdepending": 8334,
      "Ġcontribute": 8335,
      "compat": 8336,
      "ĠSpread": 8337,
      "YSTEM": 8338,
      "ottleneck": 8339,
      "olithic": 8340,
      "Hey": 8341,
      "Made": 8342,
      "bined": 8343,
      "persistent": 8344,
      "eng": 8345,
      "idx": 8346,
      "empty": 8347,
      "ĠText": 8348,
      "ĠðŁ¤": 8349,
      "Ġparsed": 8350,
      "Ġfinding": 8351,
      "eadline": 8352,
      "Google": 8353,
      "Ġsuggestions": 8354,
      "ORK": 8355,
      "ĠChanges": 8356,
      "ansparent": 8357,
      "ĠExecution": 8358,
      "ĠRLHF": 8359,
      "ĠâĶĢâĶĢâĶĢâĶĢâĶĢâĶĢâĶĢâĶĢâĶĢâĶĢâĶĢâĶĢâĶĢâĶĢâĶĢâĶĢâĶĢâĶĢâĶĢâĶĢâĶĢâĶĢâĶĢâĶĢâĶĢâĶĢâĶĢâĶĢâĶĢâĶĢâĶĢâĶĢâĶĢâĶĢâĶĢâĶĢâĶĢâĶĢâĶĢâĶĢâĶĢâĶĢâĶĢâĶĢâĶĢâĶĢâĶĢâĶĢâĶĢâĶĢâĶĢâĶĢâĶĢâĶĢâĶĢâĶĢâĶĢâĶĢâĶĢâĶĢ": 8360,
      "onym": 8361,
      "iner": 8362,
      "stat": 8363,
      "Ġ(\\\"": 8364,
      "oper": 8365,
      "illed": 8366,
      "ĠActions": 8367,
      "converse": 8368,
      "ĠDrop": 8369,
      "...\\\"": 8370,
      "Ġpromotion": 8371,
      "Ġbrilliant": 8372,
      "Ġoffering": 8373,
      "Ġfundamentally": 8374,
      "capabilities": 8375,
      "573": 8376,
      "ĠDocs": 8377,
      "erspective": 8378,
      "Day": 8379,
      "small": 8380,
      "ĠPay": 8381,
      "ulner": 8382,
      "ĠLI": 8383,
      "ĠDate": 8384,
      "hose": 8385,
      "Ġbytes": 8386,
      "rowd": 8387,
      "Ġunsafe": 8388,
      "Ġcommercial": 8389,
      "Ġbook": 8390,
      "written": 8391,
      "Ġcomputation": 8392,
      "Threads": 8393,
      "ĠContinue": 8394,
      "ĠDescription": 8395,
      "mission": 8396,
      "improvement": 8397,
      "Mis": 8398,
      "reference": 8399,
      "Ġfade": 8400,
      "ĠMain": 8401,
      "ĠWindows": 8402,
      "ĠPush": 8403,
      "upload": 8404,
      "profit": 8405,
      "Ġbeautiful": 8406,
      "Ġcontacts": 8407,
      "Ġsuite": 8408,
      "Ġoverr": 8409,
      "âĢĿ*": 8410,
      "\\\":\\": 8411,
      "Ġpublicly": 8412,
      "decode": 8413,
      "Ġ{})": 8414,
      "Ġstreaming": 8415,
      "'\\": 8416,
      "MCP": 8417,
      "nThen": 8418,
      "prom": 8419,
      "ticker": 8420,
      "arly": 8421,
      "Ġtom": 8422,
      "ĠAWS": 8423,
      "ĠUSB": 8424,
      "Ġmeant": 8425,
      "Ġmodeling": 8426,
      "Ġpret": 8427,
      "notes": 8428,
      "Ġexecutables": 8429,
      "ĠEnvironment": 8430,
      "Ġoptimized": 8431,
      "SCI": 8432,
      "Ġguidance": 8433,
      "ĠâĶĢâĶĢâĶĢâĶĢâĶĢâĶĢâĶĢâĶĢâĶĢâĶĢâĶĢâĶĢâĶĢâĶĢâĶĢâĶĢâĶĢâĶĢâĶĢâĶĢâĶĢâĶĢâĶĢâĶĢâĶĢâĶĢâĶĢâĶĢâĶĢâĶĢâĶĢâĶĢâĶĢâĶĢâĶĢâĶĢâĶĢâĶĢâĶĢâĶĢâĶĢâĶĢâĶĢâĶĢâĶĢâĶĢâĶĢâĶĢâĶĢâĶĢâĶĢâĶĢâĶĢâĶĢâĶĢâĶĢâĶĢâĶĢâĶĢâĶĢâĶĢ": 8434,
      "Ah": 8435,
      "Col": 8436,
      "Top": 8437,
      "Wait": 8438,
      "Ġant": 8439,
      "Ġbelief": 8440,
      "Ġinsp": 8441,
      "Ġstru": 8442,
      "ĠSy": 8443,
      "Ġ*\"": 8444,
      "ĠReasoning": 8445,
      "osine": 8446,
      "Ġprompting": 8447,
      "ĠAlways": 8448,
      "Ġexperi": 8449,
      "Ġmodularity": 8450,
      "Ġgreeting": 8451,
      "Ġinterpretability": 8452,
      "Learning": 8453,
      "ĠIssues": 8454,
      "Ġlifecycle": 8455,
      "ducible": 8456,
      "LA": 8457,
      "Layer": 8458,
      "âĤ": 8459,
      "Ġstars": 8460,
      "Ġharness": 8461,
      "ulating": 8462,
      "ĠNOLA": 8463,
      "Ġsharing": 8464,
      "pling": 8465,
      "ĠThought": 8466,
      "ĠStructural": 8467,
      "Ġchart": 8468,
      "spond": 8469,
      "ĠKnowledge": 8470,
      "Ġplane": 8471,
      "Ġexpansion": 8472,
      "Progress": 8473,
      "Ġbudgets": 8474,
      "Ġabstraction": 8475,
      "ĠEngineer": 8476,
      "8009": 8477,
      "ĠMinimal": 8478,
      "BASE": 8479,
      "inner": 8480,
      "ĠTotal": 8481,
      "ĠScript": 8482,
      "ĠHist": 8483,
      "Ġrefactor": 8484,
      "RED": 8485,
      "Ġaccessed": 8486,
      "Ġrouters": 8487,
      "Ġelim": 8488,
      "Ġdropdown": 8489,
      "ĠReview": 8490,
      "Card": 8491,
      "dot": 8492,
      "fail": 8493,
      "itches": 8494,
      "lements": 8495,
      "Ġmiddle": 8496,
      "Ġbur": 8497,
      "Ġconsent": 8498,
      "Ġhair": 8499,
      "Ġhalf": 8500,
      "Ġrefine": 8501,
      "Ġrememb": 8502,
      "ociations": 8503,
      "Ġrecre": 8504,
      ".*\\": 8505,
      "ĠBuilding": 8506,
      "ĠActive": 8507,
      "Ġevolving": 8508,
      "Ġintrodu": 8509,
      "Ġpromoted": 8510,
      "Ġgenius": 8511,
      "ĠIdent": 8512,
      "Fix": 8513,
      "Honest": 8514,
      "ngit": 8515,
      "Ġcortex": 8516,
      "Ġmed": 8517,
      "ĠCopy": 8518,
      "Ġ27": 8519,
      "ĠDownload": 8520,
      "Ġasyncio": 8521,
      "Ġintact": 8522,
      "Ġreturned": 8523,
      "record": 8524,
      "Ġparsers": 8525,
      "ĠREST": 8526,
      "Ġprocessor": 8527,
      "ĠTrack": 8528,
      "IDENTITY": 8529,
      "ĠTesting": 8530,
      "udfaf": 8531,
      "Ġanchors": 8532,
      "Ġemergence": 8533,
      "Instead": 8534,
      "Ġtonight": 8535,
      "`).": 8536,
      "gative": 8537,
      "nEach": 8538,
      "attr": 8539,
      "ishes": 8540,
      "Ġgender": 8541,
      "Ġforces": 8542,
      "ĠME": 8543,
      "ĠLive": 8544,
      "ĠLicense": 8545,
      "ĠGit": 8546,
      "Ġreasons": 8547,
      "avel": 8548,
      "udee": 8549,
      "Week": 8550,
      "Ġpurple": 8551,
      "ĠMLX": 8552,
      "Ġtechnically": 8553,
      "GRE": 8554,
      "documents": 8555,
      "nINFO": 8556,
      "safety": 8557,
      "Ġcities": 8558,
      "Ġslightly": 8559,
      "lots": 8560,
      "approved": 8561,
      "ĠWednesday": 8562,
      ".\\\",\\": 8563,
      "timeline": 8564,
      "Ġsoon": 8565,
      "Ġversus": 8566,
      "void": 8567,
      "otentially": 8568,
      "555": 8569,
      "ĠRecent": 8570,
      "Ġmental": 8571,
      "Ġmechan": 8572,
      "handler": 8573,
      "Ġflexibility": 8574,
      "Ġprotocols": 8575,
      "Ġphrasing": 8576,
      "Ġbelong": 8577,
      "Ġinternet": 8578,
      "ĠSuggest": 8579,
      "'}": 8580,
      "Found": 8581,
      "Node": 8582,
      "Since": 8583,
      "`),": 8584,
      "nTo": 8585,
      "well": 8586,
      "xy": 8587,
      "Ġdual": 8588,
      "lore": 8589,
      "Ġburn": 8590,
      "application": 8591,
      "Ġleak": 8592,
      "ĠiPhone": 8593,
      "Ġembed": 8594,
      "Modular": 8595,
      "Ġbecoming": 8596,
      "Intent": 8597,
      "Ġpolish": 8598,
      "Ġhosting": 8599,
      "Report": 8600,
      "Ġhuge": 8601,
      "\"[": 8602,
      ")\")": 8603,
      "=[": 8604,
      "FC": 8605,
      "afe": 8606,
      "ients": 8607,
      "tables": 8608,
      "ws": 8609,
      "Ġfamil": 8610,
      "Ġinvoice": 8611,
      "Ġconsequences": 8612,
      "ĠCross": 8613,
      "ĠFiverr": 8614,
      "ĠDay": 8615,
      "prev": 8616,
      "Ġcommits": 8617,
      "Ġactivations": 8618,
      "Ġstronger": 8619,
      "Ġtypical": 8620,
      "Ġbuttons": 8621,
      "ĠZIP": 8622,
      "Verdict": 8623,
      "Ġartifacts": 8624,
      "98": 8625,
      "MM": 8626,
      "non": 8627,
      "phi": 8628,
      "vision": 8629,
      "Ġreduction": 8630,
      "ĠSay": 8631,
      "ĠRob": 8632,
      "strong": 8633,
      "Ġavailability": 8634,
      "Ġbootstrap": 8635,
      "Ġlegit": 8636,
      "sidebar": 8637,
      "Ġinitialize": 8638,
      "Active": 8639,
      "Ġimagine": 8640,
      "ECT": 8641,
      "Machine": 8642,
      "Signal": 8643,
      "yling": 8644,
      "Ġcrypto": 8645,
      "Ġwired": 8646,
      "lored": 8647,
      "child": 8648,
      "Ġanalog": 8649,
      "Ġrates": 8650,
      "ĠEd": 8651,
      "Ġcontexts": 8652,
      "ignore": 8653,
      "Ġgravitational": 8654,
      "mented": 8655,
      "Ġeyes": 8656,
      "Ġunused": 8657,
      "Ġanyway": 8658,
      "Ġactivates": 8659,
      "currency": 8660,
      "Ġdifferently": 8661,
      "Ġengineers": 8662,
      "ĠManager": 8663,
      "Ġweekend": 8664,
      "Ġdimension": 8665,
      "ĠHandles": 8666,
      "Ġexpertise": 8667,
      "Ġwoman": 8668,
      "ambiguous": 8669,
      "Ac": 8670,
      "After": 8671,
      "Ob": 8672,
      "home": 8673,
      "zsh": 8674,
      "Ġaspect": 8675,
      "Ġdelta": 8676,
      "roke": 8677,
      "served": 8678,
      "formers": 8679,
      "Ġonto": 8680,
      "ĠEmer": 8681,
      "---|------------": 8682,
      "Ġparagraph": 8683,
      "Ġsubprocess": 8684,
      "Ġowns": 8685,
      "Ġharder": 8686,
      "Ġchoos": 8687,
      "ĠContinu": 8688,
      "Ġconvert": 8689,
      "Ġsensitive": 8690,
      "Ġdemonstrates": 8691,
      "Ġstrategic": 8692,
      "ĠMODE": 8693,
      "Looking": 8694,
      "(`${": 8695,
      "73": 8696,
      "?.": 8697,
      "YES": 8698,
      "nUser": 8699,
      "Ġskeleton": 8700,
      "isible": 8701,
      "usable": 8702,
      "Ġ**#": 8703,
      "Ġproprietary": 8704,
      "Ġexposes": 8705,
      "ĠOw": 8706,
      "2179": 8707,
      "ĠWorkflow": 8708,
      "Ġdrive": 8709,
      "posure": 8710,
      "doors": 8711,
      "----------------------------------------------------------------": 8712,
      "Ġtreats": 8713,
      "Ġâī¥": 8714,
      "Ġbegins": 8715,
      "hrase": 8716,
      "ĠSpecial": 8717,
      "agnostic": 8718,
      "ĠFilter": 8719,
      "Ġnervous": 8720,
      "Ġtomorrow": 8721,
      "bare": 8722,
      "docker": 8723,
      "ng": 8724,
      "ta": 8725,
      "âļ": 8726,
      "ĠEmail": 8727,
      "llib": 8728,
      "Ġenum": 8729,
      "compose": 8730,
      "ĠIts": 8731,
      "Ġremind": 8732,
      "Ġ404": 8733,
      "Ġviable": 8734,
      "ategic": 8735,
      "Ġlookup": 8736,
      "Ġembod": 8737,
      "Ġminimum": 8738,
      "going": 8739,
      "Ġgreen": 8740,
      "Ġsurvives": 8741,
      "Ġcredibility": 8742,
      "Write": 8743,
      "ĠPRIMARY": 8744,
      "CA": 8745,
      "person": 8746,
      "Ġtemperature": 8747,
      "Ġintr": 8748,
      "thinking": 8749,
      "ĠSection": 8750,
      "otes": 8751,
      "anded": 8752,
      "aker": 8753,
      "140": 8754,
      "Ġidx": 8755,
      "Ġsending": 8756,
      "OTA": 8757,
      "ĠOutdoors": 8758,
      "Ġswap": 8759,
      "parents": 8760,
      "Completion": 8761,
      "nAssistant": 8762,
      "!\\": 8763,
      "/`,": 8764,
      "Document": 8765,
      "Failed": 8766,
      "OK": 8767,
      "each": 8768,
      "risk": 8769,
      "Ġentity": 8770,
      "atility": 8771,
      "Ġcell": 8772,
      "Ġfake": 8773,
      "Ġpul": 8774,
      "spread": 8775,
      "irms": 8776,
      "\\\"],\\": 8777,
      "ipeline": 8778,
      "Ġshortcut": 8779,
      "single": 8780,
      "Ġmathematical": 8781,
      "ĠAlso": 8782,
      "ĠArgs": 8783,
      "requirements": 8784,
      "Ġseeding": 8785,
      "retch": 8786,
      "Control": 8787,
      "Ġleads": 8788,
      "Ġpreserving": 8789,
      "Associations": 8790,
      "Ġdrafts": 8791,
      "Domain": 8792,
      "nNo": 8793,
      "inating": 8794,
      "repo": 8795,
      "aling": 8796,
      "esl": 8797,
      "Ġtheories": 8798,
      "ĠACT": 8799,
      "ĠPract": 8800,
      "ulative": 8801,
      "Ġnotify": 8802,
      "Ġjud": 8803,
      "ĠGB": 8804,
      "2150": 8805,
      "ares": 8806,
      "Ġapproval": 8807,
      "ĠProto": 8808,
      "Ġactively": 8809,
      "307": 8810,
      "initely": 8811,
      "ĠContribut": 8812,
      "docx": 8813,
      "346": 8814,
      "Ġiterations": 8815,
      "Ġincrease": 8816,
      "âĶĶâĶĢâĶĢâĶĢâĶĢâĶĢâĶĢâĶĢâĶĢâĶĢâĶĢâĶĢâĶĢâĶĢâĶĢâĶĢâĶĢ": 8817,
      "Safety": 8818,
      "inction": 8819,
      "inned": 8820,
      "alone": 8821,
      "Ġfru": 8822,
      "useful": 8823,
      "Ġhide": 8824,
      "ĠPitch": 8825,
      "Ġusable": 8826,
      "track": 8827,
      "osity": 8828,
      "ĠVite": 8829,
      "Excellent": 8830,
      "analyze": 8831,
      "processing": 8832,
      "ORY": 8833,
      "Ġspacetime": 8834,
      "Ġpriorities": 8835,
      "Ġclients": 8836,
      "ĠExpected": 8837,
      "âĶĮâĶĢâĶĢâĶĢâĶĢâĶĢâĶĢâĶĢâĶĢâĶĢâĶĢâĶĢâĶĢâĶĢâĶĢâĶĢâĶĢâĶĢâĶĢâĶĢâĶĢâĶĢâĶĢâĶĢâĶĢâĶĢâĶĢâĶĢâĶĢâĶĢâĶĢâĶĢâĶĢâĶĢâĶĢâĶĢâĶĢâĶĢâĶĢâĶĢâĶĢâĶĢâĶĢâĶĢâĶĢâĶĢâĶĢâĶĢâĶĢâĶĢâĶĢâĶĢâĶĢâĶĢâĶĢâĶĢâĶĢâĶĢâĶĢâĶĢâĶĢâĶĢâĶĢâĶĢâĶĢ": 8838,
      "Ġsnippet": 8839,
      "ĠHelp": 8840,
      "Ġ118829": 8841,
      "Ġslices": 8842,
      "Ġ114573": 8843,
      "Ġsimultaneously": 8844,
      "Custom": 8845,
      "ls": 8846,
      "pha": 8847,
      "Ġsust": 8848,
      "Ġrele": 8849,
      "ĠFunctions": 8850,
      "ĠNeeds": 8851,
      "Ġoverwrite": 8852,
      "CHE": 8853,
      "rivate": 8854,
      "ĠIntrospection": 8855,
      "typescript": 8856,
      "Ġtransfer": 8857,
      "object": 8858,
      "Ġoptionally": 8859,
      "Ġsnapshots": 8860,
      "abeled": 8861,
      "Ġreduces": 8862,
      "ĠTimeline": 8863,
      "ĠARCHITECTURE": 8864,
      ")(": 8865,
      "mes": 8866,
      "ĠTarget": 8867,
      "Ġlosing": 8868,
      "Ġ`~": 8869,
      "Ġrapid": 8870,
      "Ġtraction": 8871,
      "Ġ32": 8872,
      "ĠBest": 8873,
      "ĠVAL": 8874,
      "âĢĿ**": 8875,
      "Ġoperate": 8876,
      "Ġvalidates": 8877,
      "Ġfinet": 8878,
      "OUS": 8879,
      "Ġrepresents": 8880,
      "Ġmigr": 8881,
      "Ġquantum": 8882,
      "Brain": 8883,
      "/_": 8884,
      "76": 8885,
      "SAT": 8886,
      "linux": 8887,
      "native": 8888,
      "enior": 8889,
      "ops": 8890,
      "ument": 8891,
      "effic": 8892,
      "Ġgroups": 8893,
      "Ġapplications": 8894,
      "Ġuncertainty": 8895,
      "Execute": 8896,
      "reflect": 8897,
      "Ġbring": 8898,
      "Design": 8899,
      "Ġcorrespond": 8900,
      "positive": 8901,
      "goals": 8902,
      "Ġpipelines": 8903,
      "Ġmovement": 8904,
      "Ġeditor": 8905,
      "register": 8906,
      "Ġpredictions": 8907,
      "Ġstatement": 8908,
      "executables": 8909,
      "Public": 8910,
      "reject": 8911,
      "Ġsophisticated": 8912,
      "Ġdiver": 8913,
      "exception": 8914,
      "changed": 8915,
      "Ġlaw": 8916,
      "ĠAlex": 8917,
      "Ġhal": 8918,
      "ĠMVP": 8919,
      "ĠRaw": 8920,
      "seen": 8921,
      "ĠPriority": 8922,
      "ulary": 8923,
      "ried": 8924,
      "ĠNO": 8925,
      "pycache": 8926,
      "Ġapproved": 8927,
      "ĠVersion": 8928,
      "week": 8929,
      "Ġshouldn": 8930,
      "Ġcontinuously": 8931,
      "pressive": 8932,
      "requires": 8933,
      "Ġfalls": 8934,
      "Ġreplaced": 8935,
      "Ġcandidates": 8936,
      "ĠBasic": 8937,
      "/)": 8938,
      "Don": 8939,
      "pages": 8940,
      "sessions": 8941,
      "--|----------------": 8942,
      "Ġbottom": 8943,
      "imize": 8944,
      "ĠScan": 8945,
      "ĠMapping": 8946,
      "forward": 8947,
      "romark": 8948,
      "antum": 8949,
      "ivery": 8950,
      "Ġshown": 8951,
      "Ġopport": 8952,
      "REPO": 8953,
      "Ġparadigm": 8954,
      "ĠInference": 8955,
      "DELETE": 8956,
      "Ġ90": 8957,
      "Ġconfirmation": 8958,
      "Ġconstants": 8959,
      "Ġslice": 8960,
      "Ġpopulate": 8961,
      "Ġrendering": 8962,
      "micromark": 8963,
      "jacent": 8964,
      "Cr": 8965,
      "Term": 8966,
      "mac": 8967,
      "ying": 8968,
      "âĨ": 8969,
      "Ġther": 8970,
      "ĠTable": 8971,
      "readonly": 8972,
      "ĠLimit": 8973,
      "Ġoffline": 8974,
      "loss": 8975,
      "Ġspiral": 8976,
      "Ġrefin": 8977,
      "ĠProb": 8978,
      "AIN": 8979,
      "Ġexecutive": 8980,
      "Ġconfigurations": 8981,
      "ĠðŁ§©": 8982,
      "Cloud": 8983,
      "ĠGeneration": 8984,
      "Ġequivalent": 8985,
      "Ġuploaded": 8986,
      "ĠRoot": 8987,
      "120": 8988,
      "Date": 8989,
      "LONG": 8990,
      "gn": 8991,
      "Ġterr": 8992,
      "Ġcant": 8993,
      "Ġmult": 8994,
      "Ġpotentially": 8995,
      "ĠScal": 8996,
      "Ġ126": 8997,
      "Ġtriggered": 8998,
      "ounding": 8999,
      "ĠConfirm": 9000,
      "Ġgrowing": 9001,
      "scr": 9002,
      "ĠBehavior": 9003,
      "Ġselector": 9004,
      "ĠIDENTITY": 9005,
      "ĠAdapt": 9006,
      "444": 9007,
      "Ġrecorded": 9008,
      "ĠTHREAD": 9009,
      "Structured": 9010,
      "Ġencrypted": 9011,
      "CTIONS": 9012,
      "consolidate": 9013,
      "Ġqueue": 9014,
      "ARE": 9015,
      "CREATE": 9016,
      "Feed": 9017,
      "long": 9018,
      "layers": 9019,
      "Ġfa": 9020,
      "Ġbias": 9021,
      "Ġla": 9022,
      "ĠWord": 9023,
      "Ġsuc": 9024,
      "Ġbackward": 9025,
      "Ġpromote": 9026,
      "Ġconfigure": 9027,
      "={`": 9028,
      "ĠArchitectural": 9029,
      "Ġcorrection": 9030,
      "iants": 9031,
      "Index": 9032,
      "bedrock": 9033,
      "live": 9034,
      "Ġtiers": 9035,
      "Ġtaken": 9036,
      "eness": 9037,
      "Ġmembers": 9038,
      "Ġmiddleware": 9039,
      "ĠTAC": 9040,
      "ĠSO": 9041,
      "external": 9042,
      "ĠDeb": 9043,
      "---|----------------": 9044,
      "Ġlogger": 9045,
      "Ġalive": 9046,
      "ĠStay": 9047,
      ".__": 9048,
      "embed": 9049,
      "Ġlayered": 9050,
      "ĠĠĠĠĠĠĠĠĠĠĠĠĠĠĠĠĠĠĠĠĠĠĠĠĠĠĠĠĠĠĠĠĠ": 9051,
      "Ġimplementations": 9052,
      "startswith": 9053,
      "Ġconfident": 9054,
      "Ġfoundational": 9055,
      "ĠImplemented": 9056,
      "ĠRepl": 9057,
      "ĠStarting": 9058,
      "Ġwrappers": 9059,
      "Ġaccounts": 9060,
      "urture": 9061,
      "Suite": 9062,
      "(...": 9063,
      "Ops": 9064,
      "Sol": 9065,
      "Save": 9066,
      "growth": 9067,
      "sm": 9068,
      "reload": 9069,
      "ouple": 9070,
      "Ġpas": 9071,
      "imated": 9072,
      "etitive": 9073,
      "Ġ\\\\\\": 9074,
      "ĠMatch": 9075,
      "evidence": 9076,
      "Ġjudge": 9077,
      "Ġsparse": 9078,
      "ĠValid": 9079,
      "Ġdiscovery": 9080,
      "ggreg": 9081,
      "ometric": 9082,
      "structural": 9083,
      ".\"}": 9084,
      "647": 9085,
      "ĠNovel": 9086,
      "Working": 9087,
      "rupted": 9088,
      "?'": 9089,
      "rary": 9090,
      "Ġpow": 9091,
      "Ġdark": 9092,
      "isis": 9093,
      "ĠPipeline": 9094,
      "Ġweren": 9095,
      "Ġemit": 9096,
      "ĠTrain": 9097,
      "ĠTriggers": 9098,
      "processed": 9099,
      "Ġeffort": 9100,
      "ĠEvents": 9101,
      "Ġindexing": 9102,
      "Ġresponding": 9103,
      "Ġaccel": 9104,
      "ĠDefine": 9105,
      "================================================================================": 9106,
      "ĠConnect": 9107,
      "ðŁ§ł": 9108,
      "=[\"": 9109,
      "NO": 9110,
      "}'": 9111,
      "Ġcrowd": 9112,
      "Ġbattle": 9113,
      "Ġlab": 9114,
      "ĠPort": 9115,
      "Ġweird": 9116,
      "ĠContract": 9117,
      "ryption": 9118,
      "ĠInstruct": 9119,
      "Ġunderlying": 9120,
      "Ġsubtle": 9121,
      "IONS": 9122,
      "Ġsituation": 9123,
      "ĠMatters": 9124,
      "Ġsounds": 9125,
      "SERT": 9126,
[...]
